{
  "version": "1.0",
  "truncation": null,
  "padding": null,
  "added_tokens": [
    {
      "id": 0,
      "content": "[UNK]",
      "single_word": false,
      "lstrip": false,
      "rstrip": false,
      "normalized": false,
      "special": true
    },
    {
      "id": 1,
      "content": "[CLS]",
      "single_word": false,
      "lstrip": false,
      "rstrip": false,
      "normalized": false,
      "special": true
    },
    {
      "id": 2,
      "content": "[SEP]",
      "single_word": false,
      "lstrip": false,
      "rstrip": false,
      "normalized": false,
      "special": true
    },
    {
      "id": 3,
      "content": "[PAD]",
      "single_word": false,
      "lstrip": false,
      "rstrip": false,
      "normalized": false,
      "special": true
    },
    {
      "id": 4,
      "content": "[MASK]",
      "single_word": false,
      "lstrip": false,
      "rstrip": false,
      "normalized": false,
      "special": true
    }
  ],
  "normalizer": {
    "type": "BertNormalizer",
    "clean_text": true,
    "handle_chinese_chars": true,
    "strip_accents": null,
    "lowercase": true
  },
  "pre_tokenizer": {
    "type": "Sequence",
    "pretokenizers": [
      {
        "type": "Split",
        "pattern": {
          "String": "_"
        },
        "behavior": "Removed",
        "invert": false
      },
      {
        "type": "BertPreTokenizer"
      }
    ]
  },
  "post_processor": null,
  "decoder": null,
  "model": {
    "type": "BPE",
    "dropout": null,
    "unk_token": "[UNK]",
    "continuing_subword_prefix": null,
    "end_of_word_suffix": null,
    "fuse_unk": false,
    "byte_fallback": false,
    "vocab": {
      "[UNK]": 0,
      "[CLS]": 1,
      "[SEP]": 2,
      "[PAD]": 3,
      "[MASK]": 4,
      "!": 5,
      "\"": 6,
      "#": 7,
      "$": 8,
      "%": 9,
      "&": 10,
      "'": 11,
      "(": 12,
      ")": 13,
      "*": 14,
      "+": 15,
      ",": 16,
      "-": 17,
      ".": 18,
      "/": 19,
      "0": 20,
      "1": 21,
      "2": 22,
      "3": 23,
      "4": 24,
      "5": 25,
      "6": 26,
      "7": 27,
      "8": 28,
      "9": 29,
      ":": 30,
      ";": 31,
      "<": 32,
      "=": 33,
      ">": 34,
      "?": 35,
      "@": 36,
      "[": 37,
      "\\": 38,
      "]": 39,
      "^": 40,
      "`": 41,
      "a": 42,
      "b": 43,
      "c": 44,
      "d": 45,
      "e": 46,
      "f": 47,
      "g": 48,
      "h": 49,
      "i": 50,
      "j": 51,
      "k": 52,
      "l": 53,
      "m": 54,
      "n": 55,
      "o": 56,
      "p": 57,
      "q": 58,
      "r": 59,
      "s": 60,
      "t": 61,
      "u": 62,
      "v": 63,
      "w": 64,
      "x": 65,
      "y": 66,
      "z": 67,
      "{": 68,
      "|": 69,
      "}": 70,
      "~": 71,
      "α": 72,
      "β": 73,
      "γ": 74,
      "δ": 75,
      "ε": 76,
      "ζ": 77,
      "η": 78,
      "θ": 79,
      "ι": 80,
      "κ": 81,
      "λ": 82,
      "μ": 83,
      "ν": 84,
      "ξ": 85,
      "ο": 86,
      "π": 87,
      "ρ": 88,
      "ς": 89,
      "σ": 90,
      "τ": 91,
      "υ": 92,
      "φ": 93,
      "χ": 94,
      "ψ": 95,
      "ω": 96,
      "ϑ": 97,
      "ϕ": 98,
      "∆": 99,
      "∴": 100,
      "≅": 101,
      "⊥": 102,
      "in": 103,
      "er": 104,
      "re": 105,
      "on": 106,
      "le": 107,
      "or": 108,
      "at": 109,
      "st": 110,
      "en": 111,
      "se": 112,
      "al": 113,
      "an": 114,
      "de": 115,
      "ar": 116,
      "ing": 117,
      "it": 118,
      "to": 119,
      "ed": 120,
      "ou": 121,
      "no": 122,
      "ion": 123,
      "me": 124,
      "fi": 125,
      "ct": 126,
      "ge": 127,
      "ce": 128,
      "ad": 129,
      "th": 130,
      "lo": 131,
      "li": 132,
      "is": 133,
      "ch": 134,
      "ro": 135,
      "co": 136,
      "id": 137,
      "ss": 138,
      "ent": 139,
      "fa": 140,
      "ck": 141,
      "un": 142,
      "con": 143,
      "ex": 144,
      "not": 145,
      "pe": 146,
      "for": 147,
      "ma": 148,
      "file": 149,
      "ate": 150,
      "mp": 151,
      "led": 152,
      "ld": 153,
      "err": 154,
      "ne": 155,
      "ab": 156,
      "tr": 157,
      "op": 158,
      "set": 159,
      "ut": 160,
      "fai": 161,
      "of": 162,
      "ver": 163,
      "us": 164,
      "ter": 165,
      "error": 166,
      "ame": 167,
      "failed": 168,
      "get": 169,
      "mo": 170,
      "val": 171,
      "si": 172,
      "la": 173,
      "and": 174,
      "um": 175,
      "te": 176,
      "pa": 177,
      "ve": 178,
      "pro": 179,
      "the": 180,
      "up": 181,
      "ul": 182,
      "nd": 183,
      "vi": 184,
      "di": 185,
      "ty": 186,
      "lib": 187,
      "ue": 188,
      "as": 189,
      "ti": 190,
      "read": 191,
      "ort": 192,
      "lu": 193,
      "ap": 194,
      "ri": 195,
      "ation": 196,
      "am": 197,
      "can": 198,
      "name": 199,
      "able": 200,
      "po": 201,
      "sh": 202,
      "ur": 203,
      "be": 204,
      "out": 205,
      "ke": 206,
      "bu": 207,
      "par": 208,
      "type": 209,
      "do": 210,
      "il": 211,
      "port": 212,
      "age": 213,
      "cou": 214,
      "str": 215,
      "dat": 216,
      "ze": 217,
      "lin": 218,
      "our": 219,
      "res": 220,
      "ction": 221,
      "cre": 222,
      "nt": 223,
      "valid": 224,
      "ff": 225,
      "end": 226,
      "ser": 227,
      "et": 228,
      "add": 229,
      "ext": 230,
      "wr": 231,
      "qu": 232,
      "put": 233,
      "mat": 234,
      "cal": 235,
      "es": 236,
      "au": 237,
      "sy": 238,
      "int": 239,
      "pc": 240,
      "0x": 241,
      "by": 242,
      "gr": 243,
      "tion": 244,
      "ource": 245,
      "mm": 246,
      "size": 247,
      "fo": 248,
      "data": 249,
      "so": 250,
      "rom": 251,
      "ndr": 252,
      "ith": 253,
      "key": 254,
      "vice": 255,
      "cont": 256,
      "ite": 257,
      "ly": 258,
      "open": 259,
      "sc": 260,
      "he": 261,
      "ig": 262,
      "from": 263,
      "list": 264,
      "invalid": 265,
      "ip": 266,
      "lock": 267,
      "source": 268,
      "ic": 269,
      "wn": 270,
      "inter": 271,
      "ra": 272,
      "che": 273,
      "per": 274,
      "loc": 275,
      "ba": 276,
      "with": 277,
      "bo": 278,
      "su": 279,
      "ls": 280,
      "gen": 281,
      "02": 282,
      "ory": 283,
      "init": 284,
      "time": 285,
      "num": 286,
      "dis": 287,
      "sion": 288,
      "comp": 289,
      "could": 290,
      "ord": 291,
      "00": 292,
      "value": 293,
      "lay": 294,
      "db": 295,
      "ac": 296,
      "ht": 297,
      "device": 298,
      "ment": 299,
      "fin": 300,
      "ob": 301,
      "log": 302,
      "ound": 303,
      "cket": 304,
      "use": 305,
      "chan": 306,
      "pt": 307,
      "if": 308,
      "comm": 309,
      "sp": 310,
      "conne": 311,
      "arg": 312,
      "ect": 313,
      "pre": 314,
      "ber": 315,
      "pat": 316,
      "ta": 317,
      "cannot": 318,
      "mem": 319,
      "ffer": 320,
      "option": 321,
      "cli": 322,
      "col": 323,
      "ull": 324,
      "mode": 325,
      "sup": 326,
      "stat": 327,
      "du": 328,
      "line": 329,
      "alloc": 330,
      "sa": 331,
      "are": 332,
      "ult": 333,
      "ho": 334,
      "rpc": 335,
      "cted": 336,
      "len": 337,
      "que": 338,
      "art": 339,
      "unk": 340,
      "tp": 341,
      "buffer": 342,
      "create": 343,
      "map": 344,
      "ject": 345,
      "info": 346,
      "ca": 347,
      "spe": 348,
      "ry": 349,
      "new": 350,
      "py": 351,
      "stre": 352,
      "gi": 353,
      "net": 354,
      "cess": 355,
      "code": 356,
      "rc": 357,
      "ot": 358,
      "ci": 359,
      "confi": 360,
      "gn": 361,
      "sm": 362,
      "ol": 363,
      "string": 364,
      "cur": 365,
      "ive": 366,
      "byte": 367,
      "pi": 368,
      "ure": 369,
      "version": 370,
      "lx": 371,
      "stream": 372,
      "support": 373,
      "ument": 374,
      "write": 375,
      "config": 376,
      "act": 377,
      "ev": 378,
      "mu": 379,
      "var": 380,
      "nown": 381,
      "load": 382,
      "max": 383,
      "number": 384,
      "state": 385,
      "start": 386,
      "rect": 387,
      "but": 388,
      "server": 389,
      "has": 390,
      "fs": 391,
      "gst": 392,
      "ress": 393,
      "ning": 394,
      "min": 395,
      "tran": 396,
      "em": 397,
      "user": 398,
      "librpc": 399,
      "cp": 400,
      "null": 401,
      "war": 402,
      "mess": 403,
      "unknown": 404,
      "output": 405,
      "hand": 406,
      "face": 407,
      "all": 408,
      "ial": 409,
      "play": 410,
      "path": 411,
      "one": 412,
      "unable": 413,
      "sk": 414,
      "ms": 415,
      "message": 416,
      "format": 417,
      "low": 418,
      "this": 419,
      "ase": 420,
      "wh": 421,
      "ity": 422,
      "object": 423,
      "win": 424,
      "argument": 425,
      "sub": 426,
      "too": 427,
      "gl": 428,
      "found": 429,
      "block": 430,
      "check": 431,
      "ll": 432,
      "tra": 433,
      "input": 434,
      "av": 435,
      "auth": 436,
      "memory": 437,
      "ting": 438,
      "back": 439,
      "ong": 440,
      "remo": 441,
      "expe": 442,
      "form": 443,
      "bin": 444,
      "source3": 445,
      "sing": 446,
      "pr": 447,
      "ml": 448,
      "send": 449,
      "command": 450,
      "char": 451,
      "io": 452,
      "ded": 453,
      "ree": 454,
      "wor": 455,
      "08": 456,
      "event": 457,
      "man": 458,
      "fix": 459,
      "mage": 460,
      "bytes": 461,
      "head": 462,
      "fault": 463,
      "fr": 464,
      "ster": 465,
      "ag": 466,
      "gin": 467,
      "usage": 468,
      "work": 469,
      "ated": 470,
      "client": 471,
      "default": 472,
      "dex": 473,
      "mis": 474,
      "tri": 475,
      "bug": 476,
      "iv": 477,
      "supported": 478,
      "ref": 479,
      "bad": 480,
      "02x": 481,
      "socket": 482,
      "quest": 483,
      "rec": 484,
      "mi": 485,
      "off": 486,
      "image": 487,
      "10": 488,
      "sign": 489,
      "parse": 490,
      "ds": 491,
      "nel": 492,
      "12": 493,
      "count": 494,
      "expected": 495,
      "request": 496,
      "lic": 497,
      "call": 498,
      "ssion": 499,
      "bit": 500,
      "fun": 501,
      "index": 502,
      "red": 503,
      "direct": 504,
      "date": 505,
      "scri": 506,
      "fla": 507,
      "ok": 508,
      "app": 509,
      "link": 510,
      "ard": 511,
      "gth": 512,
      "ret": 513,
      "wa": 514,
      "rent": 515,
      "3d": 516,
      "ble": 517,
      "ary": 518,
      "must": 519,
      "length": 520,
      "fil": 521,
      "clo": 522,
      "trans": 523,
      "oo": 524,
      "el": 525,
      "16": 526,
      "imp": 527,
      "main": 528,
      "header": 529,
      "table": 530,
      "pri": 531,
      "text": 532,
      "options": 533,
      "speci": 534,
      "word": 535,
      "match": 536,
      "rt": 537,
      "iz": 538,
      "host": 539,
      "cla": 540,
      "ps": 541,
      "node": 542,
      "md": 543,
      "ist": 544,
      "ub": 545,
      "pass": 546,
      "debug": 547,
      "address": 548,
      "im": 549,
      "nc": 550,
      "connection": 551,
      "vo": 552,
      "ns": 553,
      "warning": 554,
      "flag": 555,
      "ence": 556,
      "dev": 557,
      "11": 558,
      "src": 559,
      "ition": 560,
      "find": 561,
      "filter": 562,
      "stru": 563,
      "process": 564,
      "ign": 565,
      "dir": 566,
      "sed": 567,
      "ted": 568,
      "session": 569,
      "modu": 570,
      "ain": 571,
      "cs": 572,
      "qui": 573,
      "frame": 574,
      "lement": 575,
      "color": 576,
      "grou": 577,
      "spa": 578,
      "cer": 579,
      "module": 580,
      "we": 581,
      "ec": 582,
      "run": 583,
      "ran": 584,
      "ctor": 585,
      "xml": 586,
      "only": 587,
      "syst": 588,
      "retur": 589,
      "ts": 590,
      "thread": 591,
      "regi": 592,
      "try": 593,
      "cry": 594,
      "initial": 595,
      "packet": 596,
      "status": 597,
      "specifi": 598,
      "connect": 599,
      "system": 600,
      "ify": 601,
      "ild": 602,
      "sv": 603,
      "function": 604,
      "ray": 605,
      "parame": 606,
      "quer": 607,
      "interface": 608,
      "reg": 609,
      "fd": 610,
      "parameter": 611,
      "rece": 612,
      "vel": 613,
      "hel": 614,
      "sele": 615,
      "context": 616,
      "query": 617,
      "you": 618,
      "lete": 619,
      "plu": 620,
      "20": 621,
      "iting": 622,
      "contro": 623,
      "fixed": 624,
      "temp": 625,
      "array": 626,
      "ep": 627,
      "pos": 628,
      "group": 629,
      "nal": 630,
      "channel": 631,
      "copy": 632,
      "ha": 633,
      "vide": 634,
      "struct": 635,
      "ass": 636,
      "raw": 637,
      "arch": 638,
      "handle": 639,
      "cap": 640,
      "cd": 641,
      "print": 642,
      "http": 643,
      "free": 644,
      "ere": 645,
      "tmp": 646,
      "cod": 647,
      "level": 648,
      "directory": 649,
      "04": 650,
      "cache": 651,
      "mit": 652,
      "conver": 653,
      "plugin": 654,
      "ill": 655,
      "dio": 656,
      "smb": 657,
      "lf": 658,
      "mul": 659,
      "ator": 660,
      "def": 661,
      "cl": 662,
      "med": 663,
      "proper": 664,
      "mar": 665,
      "inst": 666,
      "lease": 667,
      "attri": 668,
      "rep": 669,
      "update": 670,
      "class": 671,
      "offset": 672,
      "64": 673,
      "32": 674,
      "over": 675,
      "08x": 676,
      "current": 677,
      "ler": 678,
      "sys": 679,
      "non": 680,
      "od": 681,
      "entry": 682,
      "cy": 683,
      "ating": 684,
      "allocate": 685,
      "vari": 686,
      "does": 687,
      "setting": 688,
      "got": 689,
      "fe": 690,
      "dow": 691,
      "script": 692,
      "space": 693,
      "using": 694,
      "display": 695,
      "mple": 696,
      "window": 697,
      "om": 698,
      "util": 699,
      "eld": 700,
      "ght": 701,
      "gener": 702,
      "missing": 703,
      "lan": 704,
      "ont": 705,
      "ready": 706,
      "sho": 707,
      "return": 708,
      "af": 709,
      "sd": 710,
      "meth": 711,
      "ir": 712,
      "page": 713,
      "ping": 714,
      "audio": 715,
      "test": 716,
      "couldn": 717,
      "gram": 718,
      "ers": 719,
      "requi": 720,
      "field": 721,
      "video": 722,
      "sec": 723,
      "sw": 724,
      "local": 725,
      "range": 726,
      "point": 727,
      "files": 728,
      "xy": 729,
      "long": 730,
      "tag": 731,
      "cle": 732,
      "attribut": 733,
      "wid": 734,
      "dest": 735,
      "record": 736,
      "uid": 737,
      "specified": 738,
      "fic": 739,
      "whi": 740,
      "cor": 741,
      "multi": 742,
      "crypt": 743,
      "change": 744,
      "control": 745,
      "bind": 746,
      "register": 747,
      "mon": 748,
      "ger": 749,
      "pool": 750,
      "close": 751,
      "ph": 752,
      "rst": 753,
      "uni": 754,
      "ail": 755,
      "resp": 756,
      "reading": 757,
      "cc": 758,
      "domain": 759,
      "ize": 760,
      "ia": 761,
      "flags": 762,
      "receiv": 763,
      "pid": 764,
      "service": 765,
      "sta": 766,
      "ual": 767,
      "d3d": 768,
      "base": 769,
      "zu": 770,
      "mb": 771,
      "ker": 772,
      "sto": 773,
      "da": 774,
      "dri": 775,
      "addr": 776,
      "dp": 777,
      "used": 778,
      "15": 779,
      "ption": 780,
      "proto": 781,
      "help": 782,
      "track": 783,
      "conf": 784,
      "clu": 785,
      "cr": 786,
      "sock": 787,
      "method": 788,
      "exec": 789,
      "ant": 790,
      "tls": 791,
      "uration": 792,
      "defin": 793,
      "ssl": 794,
      "pg": 795,
      "respon": 796,
      "xx": 797,
      "exist": 798,
      "property": 799,
      "oper": 800,
      "llu": 801,
      "ken": 802,
      "part": 803,
      "2d": 804,
      "font": 805,
      "msg": 806,
      "fl": 807,
      "mou": 808,
      "row": 809,
      "tar": 810,
      "received": 811,
      "was": 812,
      "sym": 813,
      "down": 814,
      "already": 815,
      "ance": 816,
      "pp": 817,
      "internal": 818,
      "result": 819,
      "element": 820,
      "sptr": 821,
      "2f": 822,
      "limit": 823,
      "hash": 824,
      "iter": 825,
      "25": 826,
      "unexpected": 827,
      "secon": 828,
      "ft": 829,
      "delete": 830,
      "ged": 831,
      "access": 832,
      "rm": 833,
      "mod": 834,
      "ature": 835,
      "ctl": 836,
      "ust": 837,
      "com": 838,
      "auto": 839,
      "have": 840,
      "ative": 841,
      "lob": 842,
      "select": 843,
      "vis": 844,
      "see": 845,
      "emp": 846,
      "ush": 847,
      "mt": 848,
      "avail": 849,
      "timeout": 850,
      "os": 851,
      "sam": 852,
      "mal": 853,
      "source4": 854,
      "target": 855,
      "enter": 856,
      "pack": 857,
      "inte": 858,
      "mail": 859,
      "remove": 860,
      "self": 861,
      "org": 862,
      "sr": 863,
      "password": 864,
      "termin": 865,
      "buf": 866,
      "dump": 867,
      "response": 868,
      "show": 869,
      "cmd": 870,
      "libs": 871,
      "gh": 872,
      "contain": 873,
      "arguments": 874,
      "cb": 875,
      "filename": 876,
      "program": 877,
      "charact": 878,
      "than": 879,
      "gment": 880,
      "ized": 881,
      "04x": 882,
      "go": 883,
      "queue": 884,
      "ved": 885,
      "last": 886,
      "formation": 887,
      "sync": 888,
      "right": 889,
      "first": 890,
      "look": 891,
      "oring": 892,
      "abled": 893,
      "top": 894,
      "sn": 895,
      "proxy": 896,
      "19": 897,
      "ched": 898,
      "ther": 899,
      "stub": 900,
      "ould": 901,
      "13": 902,
      "ax": 903,
      "variable": 904,
      "mer": 905,
      "br": 906,
      "next": 907,
      "available": 908,
      "will": 909,
      "lld": 910,
      "men": 911,
      "share": 912,
      "allow": 913,
      "portage": 914,
      "root": 915,
      "empty": 916,
      "attribute": 917,
      "const": 918,
      "after": 919,
      "search": 920,
      "signal": 921,
      "while": 922,
      "acce": 923,
      "02d": 924,
      "width": 925,
      "stop": 926,
      "item": 927,
      "dup": 928,
      "handler": 929,
      "wrong": 930,
      "tcp": 931,
      "ew": 932,
      "information": 933,
      "datab": 934,
      "libsmb": 935,
      "box": 936,
      "14": 937,
      "exit": 938,
      "sequ": 939,
      "hu": 940,
      "full": 941,
      "disk": 942,
      "exten": 943,
      "dr": 944,
      "std": 945,
      "priv": 946,
      "token": 947,
      "pix": 948,
      "bl": 949,
      "ident": 950,
      "core": 951,
      "store": 952,
      "lab": 953,
      "flo": 954,
      "spec": 955,
      "tree": 956,
      "dy": 957,
      "vir": 958,
      "proc": 959,
      "writing": 960,
      "mac": 961,
      "api": 962,
      "content": 963,
      "sin": 964,
      "configuration": 965,
      "compress": 966,
      "oc": 967,
      "media": 968,
      "ens": 969,
      "attr": 970,
      "param": 971,
      "ight": 972,
      "skip": 973,
      "ipv": 974,
      "database": 975,
      "tal": 976,
      "reco": 977,
      "order": 978,
      "erence": 979,
      "imum": 980,
      "child": 981,
      "lsa": 982,
      "lm": 983,
      "200": 984,
      "encod": 985,
      "should": 986,
      "ng": 987,
      "sample": 988,
      "view": 989,
      "nam": 990,
      "dete": 991,
      "sum": 992,
      "df": 993,
      "ible": 994,
      "more": 995,
      "bus": 996,
      "atal": 997,
      "unsupported": 998,
      "pl": 999,
      "make": 1000,
      "aph": 1001,
      "rate": 1002,
      "zer": 1003,
      "leg": 1004,
      "remote": 1005,
      "driver": 1006,
      "sha": 1007,
      "action": 1008,
      "exce": 1009,
      "build": 1010,
      "igno": 1011,
      "ute": 1012,
      "sequence": 1013,
      "graph": 1014,
      "modules": 1015,
      "ies": 1016,
      "mask": 1017,
      "network": 1018,
      "dns": 1019,
      "wait": 1020,
      "18": 1021,
      "trace": 1022,
      "let": 1023,
      "report": 1024,
      "ql": 1025,
      "mount": 1026,
      "usr": 1027,
      "manag": 1028,
      "position": 1029,
      "fore": 1030,
      "ignoring": 1031,
      "tw": 1032,
      "scan": 1033,
      "rix": 1034,
      "ous": 1035,
      "exp": 1036,
      "ru": 1037,
      "resol": 1038,
      "protocol": 1039,
      "ale": 1040,
      "section": 1041,
      "dc": 1042,
      "wrap": 1043,
      "total": 1044,
      "any": 1045,
      "save": 1046,
      "called": 1047,
      "ven": 1048,
      "that": 1049,
      "ish": 1050,
      "roy": 1051,
      "09": 1052,
      "pk": 1053,
      "tit": 1054,
      "tex": 1055,
      "ice": 1056,
      "sig": 1057,
      "34": 1058,
      "ick": 1059,
      "suc": 1060,
      "enum": 1061,
      "matrix": 1062,
      "destroy": 1063,
      "callback": 1064,
      "s2": 1065,
      "segment": 1066,
      "active": 1067,
      "stri": 1068,
      "ata": 1069,
      "son": 1070,
      "volu": 1071,
      "short": 1072,
      "itor": 1073,
      "please": 1074,
      "0000": 1075,
      "pipe": 1076,
      "coun": 1077,
      "required": 1078,
      "release": 1079,
      "volume": 1080,
      "tx": 1081,
      "dep": 1082,
      "ics": 1083,
      "flow": 1084,
      "mark": 1085,
      "defined": 1086,
      "aded": 1087,
      "many": 1088,
      "when": 1089,
      "asser": 1090,
      "trying": 1091,
      "og": 1092,
      "tern": 1093,
      "svc": 1094,
      "manager": 1095,
      "usb": 1096,
      "iface": 1097,
      "values": 1098,
      "changed": 1099,
      "ful": 1100,
      "doc": 1101,
      "title": 1102,
      "listen": 1103,
      "character": 1104,
      "returned": 1105,
      "ving": 1106,
      "vfs": 1107,
      "dcer": 1108,
      "17": 1109,
      "dcerpc": 1110,
      "pointer": 1111,
      "implement": 1112,
      "ine": 1113,
      "enable": 1114,
      "symbo": 1115,
      "dv": 1116,
      "tific": 1117,
      "ask": 1118,
      "align": 1119,
      "card": 1120,
      "resource": 1121,
      "loop": 1122,
      "fre": 1123,
      "glob": 1124,
      "ical": 1125,
      "may": 1126,
      "seek": 1127,
      "reference": 1128,
      "virt": 1129,
      "its": 1130,
      "peg": 1131,
      "lot": 1132,
      "descript": 1133,
      "fer": 1134,
      "label": 1135,
      "void": 1136,
      "nor": 1137,
      "descriptor": 1138,
      "08lx": 1139,
      "loaded": 1140,
      "3f": 1141,
      "bits": 1142,
      "parameters": 1143,
      "sche": 1144,
      "lookup": 1145,
      "tificate": 1146,
      "lt": 1147,
      "delay": 1148,
      "fc": 1149,
      "ino": 1150,
      "itch": 1151,
      "post": 1152,
      "abort": 1153,
      "initialize": 1154,
      "given": 1155,
      "jo": 1156,
      "ux": 1157,
      "gest": 1158,
      "stats": 1159,
      "left": 1160,
      "vector": 1161,
      "ations": 1162,
      "gle": 1163,
      "seconds": 1164,
      "accept": 1165,
      "certificate": 1166,
      "gre": 1167,
      "pres": 1168,
      "your": 1169,
      "now": 1170,
      "colum": 1171,
      "tor": 1172,
      "finish": 1173,
      "gu": 1174,
      "asy": 1175,
      "integer": 1176,
      "der": 1177,
      "sty": 1178,
      "profile": 1179,
      "her": 1180,
      "other": 1181,
      "game": 1182,
      "wer": 1183,
      "ifi": 1184,
      "24": 1185,
      "chunk": 1186,
      "verify": 1187,
      "patch": 1188,
      "rou": 1189,
      "ww": 1190,
      "malloc": 1191,
      "pub": 1192,
      "bd": 1193,
      "met": 1194,
      "obj": 1195,
      "reset": 1196,
      "parser": 1197,
      "convert": 1198,
      "late": 1199,
      "counter": 1200,
      "recv": 1201,
      "float": 1202,
      "sink": 1203,
      "extension": 1204,
      "inclu": 1205,
      "cf": 1206,
      "vent": 1207,
      "common": 1208,
      "gp": 1209,
      "begin": 1210,
      "lace": 1211,
      "del": 1212,
      "move": 1213,
      "02u": 1214,
      "maximum": 1215,
      "real": 1216,
      "sending": 1217,
      "success": 1218,
      "dd": 1219,
      "cpu": 1220,
      "failu": 1221,
      "parent": 1222,
      "rand": 1223,
      "stor": 1224,
      "ses": 1225,
      "errno": 1226,
      "into": 1227,
      "url": 1228,
      "inser": 1229,
      "attemp": 1230,
      "global": 1231,
      "na": 1232,
      "sql": 1233,
      "prefix": 1234,
      "need": 1235,
      "mix": 1236,
      "zero": 1237,
      "lar": 1238,
      "ging": 1239,
      "impl": 1240,
      "way": 1241,
      "igh": 1242,
      "kernel": 1243,
      "mux": 1244,
      "ib": 1245,
      "setup": 1246,
      "ssed": 1247,
      "entic": 1248,
      "legal": 1249,
      "2x": 1250,
      "serial": 1251,
      "encoding": 1252,
      "menu": 1253,
      "specify": 1254,
      "authentic": 1255,
      "old": 1256,
      "ped": 1257,
      "bound": 1258,
      "rea": 1259,
      "own": 1260,
      "rop": 1261,
      "rd": 1262,
      "creen": 1263,
      "seq": 1264,
      "ctx": 1265,
      "pad": 1266,
      "registr": 1267,
      "utils": 1268,
      "failure": 1269,
      "spool": 1270,
      "allowed": 1271,
      "thon": 1272,
      "den": 1273,
      "fatal": 1274,
      "atch": 1275,
      "bla": 1276,
      "my": 1277,
      "power": 1278,
      "lication": 1279,
      "sor": 1280,
      "multip": 1281,
      "nv": 1282,
      "rel": 1283,
      "td": 1284,
      "running": 1285,
      "56": 1286,
      "lea": 1287,
      "pyx": 1288,
      "emon": 1289,
      "rule": 1290,
      "shad": 1291,
      "1f": 1292,
      "parsing": 1293,
      "illegal": 1294,
      "created": 1295,
      "aa": 1296,
      "ide": 1297,
      "03": 1298,
      "decode": 1299,
      "modi": 1300,
      "scription": 1301,
      "5d": 1302,
      "dl": 1303,
      "ton": 1304,
      "sur": 1305,
      "requested": 1306,
      "creating": 1307,
      "adap": 1308,
      "buffers": 1309,
      "requires": 1310,
      "ling": 1311,
      "complete": 1312,
      "pf": 1313,
      "qual": 1314,
      "been": 1315,
      "final": 1316,
      "22": 1317,
      "enabled": 1318,
      "decod": 1319,
      "implemented": 1320,
      "lex": 1321,
      "sent": 1322,
      "activ": 1323,
      "daemon": 1324,
      "stack": 1325,
      "done": 1326,
      "big": 1327,
      "ii": 1328,
      "writ": 1329,
      "pair": 1330,
      "ead": 1331,
      "reply": 1332,
      "99": 1333,
      "connected": 1334,
      "unix": 1335,
      "libr": 1336,
      "partition": 1337,
      "style": 1338,
      "ipv6": 1339,
      "peer": 1340,
      "rtp": 1341,
      "dbus": 1342,
      "idi": 1343,
      "poll": 1344,
      "names": 1345,
      "clear": 1346,
      "s2n": 1347,
      "storage": 1348,
      "flush": 1349,
      "recogn": 1350,
      "fet": 1351,
      "ced": 1352,
      "async": 1353,
      "l2": 1354,
      "stand": 1355,
      "opt": 1356,
      "operation": 1357,
      "unc": 1358,
      "adata": 1359,
      "large": 1360,
      "spoolss": 1361,
      "06": 1362,
      "monitor": 1363,
      "78": 1364,
      "sid": 1365,
      "bt": 1366,
      "abil": 1367,
      "lit": 1368,
      "mut": 1369,
      "uri": 1370,
      "gb": 1371,
      "correct": 1372,
      "secre": 1373,
      "detected": 1374,
      "starting": 1375,
      "ouble": 1376,
      "pop": 1377,
      "png": 1378,
      "feature": 1379,
      "digest": 1380,
      "timer": 1381,
      "switch": 1382,
      "before": 1383,
      "without": 1384,
      "entri": 1385,
      "cast": 1386,
      "include": 1387,
      "synt": 1388,
      "ense": 1389,
      "private": 1390,
      "depth": 1391,
      "coord": 1392,
      "screen": 1393,
      "sic": 1394,
      "syntax": 1395,
      "model": 1396,
      "did": 1397,
      "metadata": 1398,
      "bb": 1399,
      "json": 1400,
      "loading": 1401,
      "rot": 1402,
      "term": 1403,
      "adding": 1404,
      "26": 1405,
      "opening": 1406,
      "ptr": 1407,
      "rend": 1408,
      "agent": 1409,
      "modem": 1410,
      "cau": 1411,
      "encrypt": 1412,
      "small": 1413,
      "sof": 1414,
      "entries": 1415,
      "fra": 1416,
      "clock": 1417,
      "etc": 1418,
      "ency": 1419,
      "disable": 1420,
      "button": 1421,
      "ific": 1422,
      "geo": 1423,
      "eded": 1424,
      "33": 1425,
      "quo": 1426,
      "keys": 1427,
      "sol": 1428,
      "100": 1429,
      "h5": 1430,
      "application": 1431,
      "sector": 1432,
      "conn": 1433,
      "binary": 1434,
      "licy": 1435,
      "fetch": 1436,
      "ssh": 1437,
      "req": 1438,
      "document": 1439,
      "ization": 1440,
      "trunc": 1441,
      "texture": 1442,
      "mag": 1443,
      "player": 1444,
      "stamp": 1445,
      "cython": 1446,
      "interval": 1447,
      "where": 1448,
      "sound": 1449,
      "zip": 1450,
      "basic": 1451,
      "bro": 1452,
      "ali": 1453,
      "mime": 1454,
      "shut": 1455,
      "boot": 1456,
      "assertion": 1457,
      "insert": 1458,
      "mil": 1459,
      "instead": 1460,
      "ignored": 1461,
      "height": 1462,
      "policy": 1463,
      "description": 1464,
      "import": 1465,
      "srv": 1466,
      "30": 1467,
      "task": 1468,
      "cip": 1469,
      "very": 1470,
      "exists": 1471,
      "udp": 1472,
      "contin": 1473,
      "pattern": 1474,
      "notify": 1475,
      "utf": 1476,
      "verbo": 1477,
      "column": 1478,
      "np": 1479,
      "account": 1480,
      "eff": 1481,
      "est": 1482,
      "atta": 1483,
      "plugins": 1484,
      "random": 1485,
      "render": 1486,
      "ware": 1487,
      "warn": 1488,
      "location": 1489,
      "compression": 1490,
      "samr": 1491,
      "surface": 1492,
      "edit": 1493,
      "gf": 1494,
      "encode": 1495,
      "instance": 1496,
      "force": 1497,
      "inode": 1498,
      "job": 1499,
      "html": 1500,
      "gid": 1501,
      "lat": 1502,
      "vt": 1503,
      "double": 1504,
      "fol": 1505,
      "devices": 1506,
      "deta": 1507,
      "she": 1508,
      "second": 1509,
      "ie": 1510,
      "prog": 1511,
      "28": 1512,
      "secur": 1513,
      "retri": 1514,
      "dx": 1515,
      "formed": 1516,
      "backend": 1517,
      "ten": 1518,
      "transport": 1519,
      "normal": 1520,
      "successful": 1521,
      "multiple": 1522,
      "hex": 1523,
      "ough": 1524,
      "unit": 1525,
      "ution": 1526,
      "registry": 1527,
      "mk": 1528,
      "none": 1529,
      "dele": 1530,
      "fill": 1531,
      "desc": 1532,
      "symbol": 1533,
      "wd": 1534,
      "50": 1535,
      "don": 1536,
      "security": 1537,
      "expect": 1538,
      "meta": 1539,
      "blocks": 1540,
      "signature": 1541,
      "38": 1542,
      "ga": 1543,
      "gex": 1544,
      "ifier": 1545,
      "band": 1546,
      "step": 1547,
      "ldb": 1548,
      "speed": 1549,
      "logon": 1550,
      "clean": 1551,
      "bar": 1552,
      "side": 1553,
      "there": 1554,
      "keyword": 1555,
      "scale": 1556,
      "less": 1557,
      "orig": 1558,
      "ype": 1559,
      "linux": 1560,
      "mismatch": 1561,
      "cam": 1562,
      "mapping": 1563,
      "converted": 1564,
      "mpeg": 1565,
      "schema": 1566,
      "40": 1567,
      "pin": 1568,
      "uv": 1569,
      "48": 1570,
      "body": 1571,
      "cond": 1572,
      "ification": 1573,
      "neg": 1574,
      "messages": 1575,
      "author": 1576,
      "27": 1577,
      "lines": 1578,
      "ctr": 1579,
      "generate": 1580,
      "bi": 1581,
      "configure": 1582,
      "cred": 1583,
      "4d": 1584,
      "pol": 1585,
      "transfer": 1586,
      "duplic": 1587,
      "36": 1588,
      "tun": 1589,
      "55": 1590,
      "onent": 1591,
      "cho": 1592,
      "hid": 1593,
      "dsdb": 1594,
      "push": 1595,
      "vertex": 1596,
      "reader": 1597,
      "disabled": 1598,
      "mary": 1599,
      "29": 1600,
      "vm": 1601,
      "copyright": 1602,
      "fork": 1603,
      "closed": 1604,
      "vol": 1605,
      "calc": 1606,
      "settings": 1607,
      "libcli": 1608,
      "bet": 1609,
      "authentication": 1610,
      "vs": 1611,
      "cance": 1612,
      "sens": 1613,
      "zd": 1614,
      "skipping": 1615,
      "icon": 1616,
      "enough": 1617,
      "fast": 1618,
      "compi": 1619,
      "desk": 1620,
      "extr": 1621,
      "args": 1622,
      "tpm": 1623,
      "dh": 1624,
      "func": 1625,
      "virtual": 1626,
      "allocation": 1627,
      "follow": 1628,
      "rup": 1629,
      "wo": 1630,
      "enc": 1631,
      "ole": 1632,
      "caps": 1633,
      "chain": 1634,
      "ups": 1635,
      "draw": 1636,
      "member": 1637,
      "drop": 1638,
      "expre": 1639,
      "waiting": 1640,
      "tt": 1641,
      "env": 1642,
      "prior": 1643,
      "pend": 1644,
      "helper": 1645,
      "ov": 1646,
      "pixel": 1647,
      "library": 1648,
      "ground": 1649,
      "doesn": 1650,
      "wav": 1651,
      "alg": 1652,
      "which": 1653,
      "vc": 1654,
      "recognized": 1655,
      "items": 1656,
      "dec": 1657,
      "effect": 1658,
      "uint": 1659,
      "wi": 1660,
      "contains": 1661,
      "standard": 1662,
      "login": 1663,
      "vk": 1664,
      "ws": 1665,
      "ssible": 1666,
      "split": 1667,
      "dict": 1668,
      "keep": 1669,
      "timestamp": 1670,
      "tab": 1671,
      "wm": 1672,
      "ix": 1673,
      "append": 1674,
      "attributes": 1675,
      "indi": 1676,
      "syn": 1677,
      "ential": 1678,
      "added": 1679,
      "differ": 1680,
      "expression": 1681,
      "corrup": 1682,
      "compat": 1683,
      "verbose": 1684,
      "slot": 1685,
      "closing": 1686,
      "decrypt": 1687,
      "decoder": 1688,
      "thre": 1689,
      "same": 1690,
      "types": 1691,
      "transform": 1692,
      "sort": 1693,
      "present": 1694,
      "visual": 1695,
      "ah": 1696,
      "fact": 1697,
      "ures": 1698,
      "high": 1699,
      "llx": 1700,
      "comment": 1701,
      "capabil": 1702,
      "lice": 1703,
      "secret": 1704,
      "sco": 1705,
      "join": 1706,
      "mutex": 1707,
      "duplicate": 1708,
      "vid": 1709,
      "ren": 1710,
      "ner": 1711,
      "region": 1712,
      "glib": 1713,
      "channe": 1714,
      "pan": 1715,
      "overflow": 1716,
      "gs": 1717,
      "ular": 1718,
      "tracker": 1719,
      "ward": 1720,
      "specific": 1721,
      "magic": 1722,
      "cu": 1723,
      "errors": 1724,
      "acl": 1725,
      "hist": 1726,
      "desktop": 1727,
      "01": 1728,
      "dist": 1729,
      "35": 1730,
      "bc": 1731,
      "packets": 1732,
      "ween": 1733,
      "oid": 1734,
      "cause": 1735,
      "origin": 1736,
      "ash": 1737,
      "single": 1738,
      "sist": 1739,
      "simple": 1740,
      "between": 1741,
      "define": 1742,
      "named": 1743,
      "dn": 1744,
      "events": 1745,
      "ys": 1746,
      "alias": 1747,
      "just": 1748,
      "public": 1749,
      "watch": 1750,
      "proble": 1751,
      "processing": 1752,
      "44": 1753,
      "tool": 1754,
      "128": 1755,
      "shared": 1756,
      "press": 1757,
      "bitmap": 1758,
      "era": 1759,
      "ea": 1760,
      "kb": 1761,
      "filesystem": 1762,
      "removed": 1763,
      "colle": 1764,
      "statement": 1765,
      "marsh": 1766,
      "gra": 1767,
      "extract": 1768,
      "area": 1769,
      "fy": 1770,
      "codec": 1771,
      "hard": 1772,
      "uring": 1773,
      "ioctl": 1774,
      "gc": 1775,
      "master": 1776,
      "destin": 1777,
      "board": 1778,
      "37": 1779,
      "rb": 1780,
      "ilt": 1781,
      "export": 1782,
      "ities": 1783,
      "cat": 1784,
      "component": 1785,
      "clip": 1786,
      "structure": 1787,
      "built": 1788,
      "idx": 1789,
      "install": 1790,
      "quota": 1791,
      "metry": 1792,
      "transm": 1793,
      "fn": 1794,
      "light": 1795,
      "extra": 1796,
      "malformed": 1797,
      "rr": 1798,
      "archive": 1799,
      "signed": 1800,
      "exiting": 1801,
      "cluster": 1802,
      "namespace": 1803,
      "started": 1804,
      "getting": 1805,
      "nl": 1806,
      "iso": 1807,
      "cky": 1808,
      "layer": 1809,
      "59": 1810,
      "mus": 1811,
      "ces": 1812,
      "under": 1813,
      "rad": 1814,
      "ignore": 1815,
      "priority": 1816,
      "wocky": 1817,
      "returning": 1818,
      "fuse": 1819,
      "zone": 1820,
      "passed": 1821,
      "yet": 1822,
      "unlock": 1823,
      "destination": 1824,
      "80": 1825,
      "super": 1826,
      "pay": 1827,
      "cursor": 1828,
      "comple": 1829,
      "dial": 1830,
      "pto": 1831,
      "swap": 1832,
      "pkcs": 1833,
      "abc": 1834,
      "pm": 1835,
      "rx": 1836,
      "variant": 1837,
      "receive": 1838,
      "reser": 1839,
      "aud": 1840,
      "case": 1841,
      "pq": 1842,
      "10s": 1843,
      "hi": 1844,
      "uuid": 1845,
      "ater": 1846,
      "shold": 1847,
      "openssl": 1848,
      "exception": 1849,
      "v2": 1850,
      "mission": 1851,
      "ari": 1852,
      "transa": 1853,
      "yy": 1854,
      "envir": 1855,
      "encounter": 1856,
      "famil": 1857,
      "commands": 1858,
      "channels": 1859,
      "identifier": 1860,
      "gss": 1861,
      "ump": 1862,
      "hostname": 1863,
      "shot": 1864,
      "netlogon": 1865,
      "ties": 1866,
      "pthread": 1867,
      "winbind": 1868,
      "unrecognized": 1869,
      "environ": 1870,
      "negative": 1871,
      "some": 1872,
      "resolve": 1873,
      "talloc": 1874,
      "encountered": 1875,
      "tempor": 1876,
      "shutdown": 1877,
      "successfully": 1878,
      "checksum": 1879,
      "d3drm": 1880,
      "family": 1881,
      "xxxx": 1882,
      "shader": 1883,
      "sl": 1884,
      "statist": 1885,
      "threshold": 1886,
      "brid": 1887,
      "ipv4": 1888,
      "fail": 1889,
      "replace": 1890,
      "fold": 1891,
      "xm": 1892,
      "true": 1893,
      "frames": 1894,
      "modifi": 1895,
      "written": 1896,
      "tc": 1897,
      "ui": 1898,
      "opengl": 1899,
      "ftp": 1900,
      "crypto": 1901,
      "definit": 1902,
      "tdb": 1903,
      "v1": 1904,
      "quit": 1905,
      "snap": 1906,
      "expi": 1907,
      "prop": 1908,
      "roll": 1909,
      "goo": 1910,
      "cert": 1911,
      "guage": 1912,
      "66": 1913,
      "assign": 1914,
      "definition": 1915,
      "transaction": 1916,
      "cent": 1917,
      "params": 1918,
      "compil": 1919,
      "ij": 1920,
      "ternal": 1921,
      "gine": 1922,
      "properties": 1923,
      "pen": 1924,
      "hold": 1925,
      "language": 1926,
      "zz": 1927,
      "updat": 1928,
      "cm": 1929,
      "trig": 1930,
      "ind": 1931,
      "prepa": 1932,
      "static": 1933,
      "widget": 1934,
      "ack": 1935,
      "incorrect": 1936,
      "rection": 1937,
      "alt": 1938,
      "background": 1939,
      "pam": 1940,
      "commit": 1941,
      "characters": 1942,
      "blas": 1943,
      "libb": 1944,
      "previ": 1945,
      "kill": 1946,
      "web": 1947,
      "shell": 1948,
      "tur": 1949,
      "incre": 1950,
      "again": 1951,
      "ates": 1952,
      "car": 1953,
      "condition": 1954,
      "ispatch": 1955,
      "drive": 1956,
      "vp": 1957,
      "regex": 1958,
      "selected": 1959,
      "environment": 1960,
      "ops": 1961,
      "ntlm": 1962,
      "handled": 1963,
      "owner": 1964,
      "dt": 1965,
      "ture": 1966,
      "winreg": 1967,
      "medi": 1968,
      "suf": 1969,
      "queryinterface": 1970,
      "converting": 1971,
      "determin": 1972,
      "note": 1973,
      "home": 1974,
      "execute": 1975,
      "0f": 1976,
      "plan": 1977,
      "like": 1978,
      "mach": 1979,
      "binding": 1980,
      "attempt": 1981,
      "blob": 1982,
      "tty": 1983,
      "overr": 1984,
      "prob": 1985,
      "attach": 1986,
      "previous": 1987,
      "two": 1988,
      "macro": 1989,
      "ow": 1990,
      "payload": 1991,
      "trust": 1992,
      "39": 1993,
      "username": 1994,
      "bool": 1995,
      "sdl": 1996,
      "credential": 1997,
      "88": 1998,
      "hd": 1999,
      "idirect": 2000,
      "sched": 2001,
      "v4": 2002,
      "57": 2003,
      "external": 2004,
      "izing": 2005,
      "metr": 2006,
      "because": 2007,
      "initialized": 2008,
      "socks": 2009,
      "rename": 2010,
      "sure": 2011,
      "matching": 2012,
      "camera": 2013,
      "mf": 2014,
      "angle": 2015,
      "diff": 2016,
      "qt": 2017,
      "alp": 2018,
      "demux": 2019,
      "aborting": 2020,
      "separ": 2021,
      "wine": 2022,
      "mailbox": 2023,
      "anal": 2024,
      "bio": 2025,
      "stdin": 2026,
      "forward": 2027,
      "progress": 2028,
      "blue": 2029,
      "mixer": 2030,
      "lear": 2031,
      "remoted": 2032,
      "bridge": 2033,
      "gd": 2034,
      "rs": 2035,
      "rtsp": 2036,
      "route": 2037,
      "bat": 2038,
      "engine": 2039,
      "eof": 2040,
      "cancel": 2041,
      "ast": 2042,
      "vision": 2043,
      "ither": 2044,
      "factor": 2045,
      "ason": 2046,
      "www": 2047,
      "remotedispatch": 2048,
      "mef": 2049,
      "checking": 2050,
      "prec": 2051,
      "ressed": 2052,
      "fields": 2053,
      "finished": 2054,
      "tools": 2055,
      "overloaded": 2056,
      "ipmi": 2057,
      "permission": 2058,
      "idmef": 2059,
      "86": 2060,
      "gevent": 2061,
      "eve": 2062,
      "removing": 2063,
      "least": 2064,
      "geometry": 2065,
      "score": 2066,
      "ert": 2067,
      "parti": 2068,
      "ient": 2069,
      "selection": 2070,
      "points": 2071,
      "container": 2072,
      "ffff": 2073,
      "svcctl": 2074,
      "problem": 2075,
      "hr": 2076,
      "slice": 2077,
      "49": 2078,
      "upnp": 2079,
      "spf": 2080,
      "operator": 2081,
      "algor": 2082,
      "rgb": 2083,
      "mult": 2084,
      "pb": 2085,
      "cture": 2086,
      "chr": 2087,
      "47": 2088,
      "decl": 2089,
      "fblas": 2090,
      "poly": 2091,
      "printer": 2092,
      "such": 2093,
      "objects": 2094,
      "controll": 2095,
      "eval": 2096,
      "mc": 2097,
      "posit": 2098,
      "delta": 2099,
      "prev": 2100,
      "elements": 2101,
      "factory": 2102,
      "known": 2103,
      "thing": 2104,
      "diction": 2105,
      "execut": 2106,
      "algorith": 2107,
      "ee": 2108,
      "hz": 2109,
      "mesh": 2110,
      "ban": 2111,
      "manage": 2112,
      "special": 2113,
      "tware": 2114,
      "king": 2115,
      "rsa": 2116,
      "wk": 2117,
      "xattr": 2118,
      "about": 2119,
      "srvsvc": 2120,
      "weight": 2121,
      "1234": 2122,
      "ucp": 2123,
      "repe": 2124,
      "dig": 2125,
      "during": 2126,
      "256": 2127,
      "duration": 2128,
      "gam": 2129,
      "reject": 2130,
      "produ": 2131,
      "dst": 2132,
      "sole": 2133,
      "d3dx": 2134,
      "software": 2135,
      "redu": 2136,
      "lis": 2137,
      "via": 2138,
      "23": 2139,
      "tv": 2140,
      "verse": 2141,
      "compressed": 2142,
      "xyz": 2143,
      "hy": 2144,
      "allocating": 2145,
      "gue": 2146,
      "nr": 2147,
      "rat": 2148,
      "extended": 2149,
      "echo": 2150,
      "probe": 2151,
      "bra": 2152,
      "apply": 2153,
      "conversion": 2154,
      "xs": 2155,
      "terminal": 2156,
      "nb": 2157,
      "ume": 2158,
      "validate": 2159,
      "bot": 2160,
      "machine": 2161,
      "firm": 2162,
      "prote": 2163,
      "trigger": 2164,
      "possible": 2165,
      "package": 2166,
      "sla": 2167,
      "music": 2168,
      "admin": 2169,
      "groups": 2170,
      "nick": 2171,
      "krb": 2172,
      "ring": 2173,
      "scard": 2174,
      "els": 2175,
      "statistics": 2176,
      "bmp": 2177,
      "ks": 2178,
      "cate": 2179,
      "ample": 2180,
      "cell": 2181,
      "alpha": 2182,
      "idle": 2183,
      "generic": 2184,
      "calcul": 2185,
      "mean": 2186,
      "models": 2187,
      "dm": 2188,
      "supp": 2189,
      "wrapper": 2190,
      "09u": 2191,
      "capture": 2192,
      "prepare": 2193,
      "kk": 2194,
      "verage": 2195,
      "gt": 2196,
      "ise": 2197,
      "mong": 2198,
      "worker": 2199,
      "template": 2200,
      "marshal": 2201,
      "firmware": 2202,
      "krb5": 2203,
      "sets": 2204,
      "samp": 2205,
      "dvd": 2206,
      "509": 2207,
      "brea": 2208,
      "numer": 2209,
      "encoder": 2210,
      "passdb": 2211,
      "constant": 2212,
      "nn": 2213,
      "shif": 2214,
      "gnu": 2215,
      "nodes": 2216,
      "cpp": 2217,
      "789": 2218,
      "learn": 2219,
      "mouse": 2220,
      "arb": 2221,
      "sg": 2222,
      "reason": 2223,
      "ldap": 2224,
      "primary": 2225,
      "ang": 2226,
      "processor": 2227,
      "different": 2228,
      "hh": 2229,
      "logy": 2230,
      "abcdef": 2231,
      "console": 2232,
      "perform": 2233,
      "pick": 2234,
      "sockopt": 2235,
      "ak": 2236,
      "crc": 2237,
      "21": 2238,
      "backup": 2239,
      "udisk": 2240,
      "atom": 2241,
      "pac": 2242,
      "freedesktop": 2243,
      "adaptor": 2244,
      "dynam": 2245,
      "ctrl": 2246,
      "123456": 2247,
      "detail": 2248,
      "ske": 2249,
      "addref": 2250,
      "feat": 2251,
      "sensor": 2252,
      "46": 2253,
      "place": 2254,
      "opened": 2255,
      "registered": 2256,
      "assert": 2257,
      "alignment": 2258,
      "generated": 2259,
      "continue": 2260,
      "catal": 2261,
      "foc": 2262,
      "stdout": 2263,
      "activate": 2264,
      "pending": 2265,
      "errup": 2266,
      "compare": 2267,
      "want": 2268,
      "pcap": 2269,
      "take": 2270,
      "black": 2271,
      "broad": 2272,
      "cipher": 2273,
      "interrup": 2274,
      "minimum": 2275,
      "recover": 2276,
      "restore": 2277,
      "collection": 2278,
      "catalog": 2279,
      "dw": 2280,
      "jpeg": 2281,
      "resh": 2282,
      "contact": 2283,
      "isis": 2284,
      "streams": 2285,
      "2c": 2286,
      "guid": 2287,
      "rf": 2288,
      "truncated": 2289,
      "compatible": 2290,
      "temporary": 2291,
      "seed": 2292,
      "lish": 2293,
      "dimen": 2294,
      "bject": 2295,
      "ear": 2296,
      "r1": 2297,
      "cached": 2298,
      "fragment": 2299,
      "here": 2300,
      "adm": 2301,
      "libvirt": 2302,
      "playlist": 2303,
      "arm": 2304,
      "book": 2305,
      "pdu": 2306,
      "relay": 2307,
      "spi": 2308,
      "31": 2309,
      "lost": 2310,
      "layout": 2311,
      "255": 2312,
      "folder": 2313,
      "scal": 2314,
      "vend": 2315,
      "xt": 2316,
      "4f": 2317,
      "timed": 2318,
      "refresh": 2319,
      "compiler": 2320,
      "fal": 2321,
      "locale": 2322,
      "hook": 2323,
      "dimension": 2324,
      "ef": 2325,
      "mid": 2326,
      "writer": 2327,
      "threads": 2328,
      "asci": 2329,
      "tf": 2330,
      "isc": 2331,
      "initializing": 2332,
      "retrieve": 2333,
      "mongoc": 2334,
      "due": 2335,
      "six": 2336,
      "times": 2337,
      "frequ": 2338,
      "hdr": 2339,
      "tl": 2340,
      "fli": 2341,
      "ime": 2342,
      "ipc": 2343,
      "rev": 2344,
      "perio": 2345,
      "phy": 2346,
      "disco": 2347,
      "glget": 2348,
      "algorithm": 2349,
      "edge": 2350,
      "nego": 2351,
      "netapi": 2352,
      "day": 2353,
      "fici": 2354,
      "currently": 2355,
      "chron": 2356,
      "scheme": 2357,
      "123456789": 2358,
      "ness": 2359,
      "equal": 2360,
      "sel": 2361,
      "configured": 2362,
      "4x": 2363,
      "klm": 2364,
      "exceed": 2365,
      "each": 2366,
      "determine": 2367,
      "needs": 2368,
      "imap": 2369,
      "inet": 2370,
      "spr": 2371,
      "reserved": 2372,
      "dynamic": 2373,
      "alert": 2374,
      "canon": 2375,
      "zx": 2376,
      "voice": 2377,
      "expecting": 2378,
      "dictionary": 2379,
      "ucs": 2380,
      "unsigned": 2381,
      "vendor": 2382,
      "pse": 2383,
      "45": 2384,
      "gly": 2385,
      "pdb": 2386,
      "math": 2387,
      "connections": 2388,
      "ospf": 2389,
      "lied": 2390,
      "lc": 2391,
      "notification": 2392,
      "shift": 2393,
      "chat": 2394,
      "coordin": 2395,
      "20s": 2396,
      "96": 2397,
      "boole": 2398,
      "lower": 2399,
      "avg": 2400,
      "recur": 2401,
      "idmap": 2402,
      "sklearn": 2403,
      "connecting": 2404,
      "results": 2405,
      "4s": 2406,
      "clone": 2407,
      "controller": 2408,
      "ek": 2409,
      "oci": 2410,
      "validation": 2411,
      "deleted": 2412,
      "boolean": 2413,
      "libbpf": 2414,
      "false": 2415,
      "cing": 2416,
      "compiled": 2417,
      "fw": 2418,
      "vided": 2419,
      "unpack": 2420,
      "both": 2421,
      "leton": 2422,
      "77": 2423,
      "tog": 2424,
      "occur": 2425,
      "complex": 2426,
      "capabilities": 2427,
      "rw": 2428,
      "des": 2429,
      "charset": 2430,
      "scope": 2431,
      "expand": 2432,
      "provid": 2433,
      "picture": 2434,
      "headers": 2435,
      "8s": 2436,
      "following": 2437,
      "direction": 2438,
      "soap": 2439,
      "detect": 2440,
      "snapshot": 2441,
      "continu": 2442,
      "94": 2443,
      "ids": 2444,
      "md5": 2445,
      "builtin": 2446,
      "provided": 2447,
      "ooo": 2448,
      "fit": 2449,
      "ram": 2450,
      "colors": 2451,
      "merge": 2452,
      "hw": 2453,
      "lang": 2454,
      "unicode": 2455,
      "hoto": 2456,
      "existing": 2457,
      "bor": 2458,
      "sizeof": 2459,
      "gensec": 2460,
      "x11": 2461,
      "unhandled": 2462,
      "diag": 2463,
      "terminated": 2464,
      "center": 2465,
      "va": 2466,
      "credentials": 2467,
      "gupnp": 2468,
      "windows": 2469,
      "variables": 2470,
      "axis": 2471,
      "break": 2472,
      "gvir": 2473,
      "nmb": 2474,
      "wave": 2475,
      "listener": 2476,
      "ascii": 2477,
      "pand": 2478,
      "role": 2479,
      "average": 2480,
      "brow": 2481,
      "pla": 2482,
      "opti": 2483,
      "locked": 2484,
      "pages": 2485,
      "frequency": 2486,
      "bed": 2487,
      "ste": 2488,
      "heap": 2489,
      "shadow": 2490,
      "neigh": 2491,
      "download": 2492,
      "sus": 2493,
      "avi": 2494,
      "uvw": 2495,
      "dispatch": 2496,
      "05": 2497,
      "202": 2498,
      "6d": 2499,
      "inc": 2500,
      "then": 2501,
      "adapter": 2502,
      "cust": 2503,
      "distri": 2504,
      "going": 2505,
      "blk": 2506,
      "exceeded": 2507,
      "mg": 2508,
      "div": 2509,
      "x509": 2510,
      "sci": 2511,
      "klmno": 2512,
      "cook": 2513,
      "verti": 2514,
      "integr": 2515,
      "xd": 2516,
      "regular": 2517,
      "rules": 2518,
      "history": 2519,
      "sle": 2520,
      "stick": 2521,
      "adv": 2522,
      "ghij": 2523,
      "toggle": 2524,
      "fortran": 2525,
      "inf": 2526,
      "images": 2527,
      "samples": 2528,
      "xmlse": 2529,
      "resolution": 2530,
      "dialog": 2531,
      "curve": 2532,
      "kit": 2533,
      "allocated": 2534,
      "shape": 2535,
      "pandas": 2536,
      "sim": 2537,
      "ficient": 2538,
      "palet": 2539,
      "users": 2540,
      "defaults": 2541,
      "cryption": 2542,
      "uniform": 2543,
      "custom": 2544,
      "58": 2545,
      "wal": 2546,
      "cfg": 2547,
      "jour": 2548,
      "mic": 2549,
      "unlink": 2550,
      "safe": 2551,
      "tables": 2552,
      "cv": 2553,
      "dot": 2554,
      "elf": 2555,
      "snmp": 2556,
      "h5py": 2557,
      "dle": 2558,
      "gain": 2559,
      "rows": 2560,
      "parm": 2561,
      "columns": 2562,
      "distribut": 2563,
      "umb": 2564,
      "creation": 2565,
      "smart": 2566,
      "klmnopq": 2567,
      "setsockopt": 2568,
      "repeat": 2569,
      "udisks": 2570,
      "pd": 2571,
      "sip": 2572,
      "shake": 2573,
      "nu": 2574,
      "magi": 2575,
      "consist": 2576,
      "declar": 2577,
      "stra": 2578,
      "white": 2579,
      "cleanup": 2580,
      "override": 2581,
      "ssvc": 2582,
      "resume": 2583,
      "transl": 2584,
      "rstuvw": 2585,
      "palette": 2586,
      "attempting": 2587,
      "categ": 2588,
      "abcdefghij": 2589,
      "ark": 2590,
      "interpol": 2591,
      "07": 2592,
      "cand": 2593,
      "compos": 2594,
      "initialization": 2595,
      "modify": 2596,
      "pdl": 2597,
      "wkssvc": 2598,
      "undefined": 2599,
      "logical": 2600,
      "compile": 2601,
      "glyph": 2602,
      "prof": 2603,
      "tim": 2604,
      "eventlog": 2605,
      "general": 2606,
      "greater": 2607,
      "leave": 2608,
      "journal": 2609,
      "vec": 2610,
      "director": 2611,
      "mbl": 2612,
      "numeric": 2613,
      "cut": 2614,
      "lid": 2615,
      "come": 2616,
      "optional": 2617,
      "audit": 2618,
      "features": 2619,
      "bs": 2620,
      "retry": 2621,
      "reached": 2622,
      "nmbd": 2623,
      "0123456789": 2624,
      "amp": 2625,
      "based": 2626,
      "commun": 2627,
      "good": 2628,
      "positive": 2629,
      "ost": 2630,
      "perror": 2631,
      "cbk": 2632,
      "skeleton": 2633,
      "native": 2634,
      "ctype": 2635,
      "appe": 2636,
      "pcm": 2637,
      "saved": 2638,
      "pysam": 2639,
      "bounds": 2640,
      "fat": 2641,
      "who": 2642,
      "16s": 2643,
      "fb": 2644,
      "rest": 2645,
      "resize": 2646,
      "statsmodels": 2647,
      "provider": 2648,
      "realloc": 2649,
      "altern": 2650,
      "percent": 2651,
      "magick": 2652,
      "restart": 2653,
      "arv": 2654,
      "tags": 2655,
      "cols": 2656,
      "matches": 2657,
      "automat": 2658,
      "ensembl": 2659,
      "mgr": 2660,
      "san": 2661,
      "sas": 2662,
      "calling": 2663,
      "neighbor": 2664,
      "lp": 2665,
      "decla": 2666,
      "hint": 2667,
      "plat": 2668,
      "v4l2": 2669,
      "pw": 2670,
      "handshake": 2671,
      "tup": 2672,
      "struction": 2673,
      "associ": 2674,
      "76": 2675,
      "tsa": 2676,
      "alive": 2677,
      "ission": 2678,
      "bg": 2679,
      "still": 2680,
      "adjust": 2681,
      "sorry": 2682,
      "klmnopqrstuvw": 2683,
      "nfs": 2684,
      "alman": 2685,
      "cape": 2686,
      "ni": 2687,
      "tss": 2688,
      "serv": 2689,
      "stro": 2690,
      "arti": 2691,
      "sf": 2692,
      "ulation": 2693,
      "loader": 2694,
      "corrupted": 2695,
      "guest": 2696,
      "ud": 2697,
      "95": 2698,
      "hosts": 2699,
      "contents": 2700,
      "logging": 2701,
      "acceler": 2702,
      "blan": 2703,
      "rz": 2704,
      "xine": 2705,
      "acc": 2706,
      "completed": 2707,
      "264": 2708,
      "d2d": 2709,
      "example": 2710,
      "15s": 2711,
      "consum": 2712,
      "smb2": 2713,
      "imm": 2714,
      "vv": 2715,
      "needed": 2716,
      "tele": 2717,
      "scroll": 2718,
      "quality": 2719,
      "egl": 2720,
      "fall": 2721,
      "revision": 2722,
      "disc": 2723,
      "abcdefghijklmnopqrstuvw": 2724,
      "rout": 2725,
      "yes": 2726,
      "itional": 2727,
      "joy": 2728,
      "ied": 2729,
      "licit": 2730,
      "03d": 2731,
      "98": 2732,
      "cnt": 2733,
      "les": 2734,
      "escape": 2735,
      "aligned": 2736,
      "discard": 2737,
      "curl": 2738,
      "symbols": 2739,
      "proce": 2740,
      "enumer": 2741,
      "alsa": 2742,
      "icmp": 2743,
      "tunnel": 2744,
      "sz": 2745,
      "000": 2746,
      "subscri": 2747,
      "crit": 2748,
      "dvb": 2749,
      "ratio": 2750,
      "1st": 2751,
      "102": 2752,
      "bal": 2753,
      "slo": 2754,
      "pi4": 2755,
      "inv": 2756,
      "asse": 2757,
      "rough": 2758,
      "txt": 2759,
      "i2c": 2760,
      "absol": 2761,
      "entering": 2762,
      "abcdefghijklmnopqrstuvwxyz": 2763,
      "extent": 2764,
      "printf": 2765,
      "metric": 2766,
      "xmp": 2767,
      "scsi": 2768,
      "cro": 2769,
      "ised": 2770,
      "combin": 2771,
      "ddraw": 2772,
      "disconnect": 2773,
      "cmp": 2774,
      "another": 2775,
      "subject": 2776,
      "aging": 2777,
      "sysprof": 2778,
      "transmission": 2779,
      "72": 2780,
      "abling": 2781,
      "exceeds": 2782,
      "dra": 2783,
      "ele": 2784,
      "either": 2785,
      "oun": 2786,
      "original": 2787,
      "aff": 2788,
      "services": 2789,
      "identity": 2790,
      "ju": 2791,
      "ites": 2792,
      "vile": 2793,
      "cookie": 2794,
      "ssi": 2795,
      "vert": 2796,
      "lap": 2797,
      "logfile": 2798,
      "unique": 2799,
      "symlink": 2800,
      "candid": 2801,
      "deprec": 2802,
      "incomplete": 2803,
      "atype": 2804,
      "scip": 2805,
      "91": 2806,
      "anti": 2807,
      "turn": 2808,
      "platform": 2809,
      "absolute": 2810,
      "border": 2811,
      "snd": 2812,
      "wchar": 2813,
      "formats": 2814,
      "negoti": 2815,
      "pdf": 2816,
      "tk": 2817,
      "subtitle": 2818,
      "flash": 2819,
      "privile": 2820,
      "slave": 2821,
      "ai": 2822,
      "fu": 2823,
      "keyboard": 2824,
      "gv": 2825,
      "corrupt": 2826,
      "gif": 2827,
      "tle": 2828,
      "maj": 2829,
      "focus": 2830,
      "sat": 2831,
      "deci": 2832,
      "bolt": 2833,
      "children": 2834,
      "green": 2835,
      "p2": 2836,
      "pic": 2837,
      "libxml": 2838,
      "topo": 2839,
      "tain": 2840,
      "strings": 2841,
      "spawn": 2842,
      "phase": 2843,
      "partial": 2844,
      "period": 2845,
      "cn": 2846,
      "ey": 2847,
      "mmap": 2848,
      "ports": 2849,
      "statespace": 2850,
      "bitrate": 2851,
      "misc": 2852,
      "soft": 2853,
      "60": 2854,
      "midi": 2855,
      "linear": 2856,
      "batter": 2857,
      "ding": 2858,
      "val1": 2859,
      "promp": 2860,
      "stored": 2861,
      "hidden": 2862,
      "reduce": 2863,
      "rtcp": 2864,
      "eap": 2865,
      "systemd": 2866,
      "indic": 2867,
      "distance": 2868,
      "debug1": 2869,
      "tpm2": 2870,
      "entity": 2871,
      "pixels": 2872,
      "scipy": 2873,
      "aes": 2874,
      "geto": 2875,
      "grad": 2876,
      "transmit": 2877,
      "gy": 2878,
      "proj": 2879,
      "acy": 2880,
      "interpre": 2881,
      "comput": 2882,
      "netlink": 2883,
      "lxc": 2884,
      "details": 2885,
      "apa": 2886,
      "hit": 2887,
      "restri": 2888,
      "marker": 2889,
      "relative": 2890,
      "rp": 2891,
      "tou": 2892,
      "even": 2893,
      "category": 2894,
      "encryption": 2895,
      "addres": 2896,
      "lict": 2897,
      "blocking": 2898,
      "2nd": 2899,
      "nan": 2900,
      "servers": 2901,
      "multicast": 2902,
      "att": 2903,
      "posix": 2904,
      "bear": 2905,
      "utf8": 2906,
      "bj": 2907,
      "ink": 2908,
      "54": 2909,
      "grid": 2910,
      "uses": 2911,
      "glvertex": 2912,
      "depend": 2913,
      "deprecated": 2914,
      "what": 2915,
      "endpoint": 2916,
      "chars": 2917,
      "translate": 2918,
      "summary": 2919,
      "ways": 2920,
      "bran": 2921,
      "endi": 2922,
      "acqui": 2923,
      "matched": 2924,
      "iteral": 2925,
      "sleep": 2926,
      "battery": 2927,
      "whe": 2928,
      "secure": 2929,
      "broken": 2930,
      "appear": 2931,
      "gm": 2932,
      "n1": 2933,
      "qp": 2934,
      "tom": 2935,
      "chro": 2936,
      "1d": 2937,
      "href": 2938,
      "builder": 2939,
      "capability": 2940,
      "glx": 2941,
      "unregister": 2942,
      "functions": 2943,
      "3s": 2944,
      "6f": 2945,
      "nothing": 2946,
      "ntfs": 2947,
      "disconnected": 2948,
      "declaration": 2949,
      "literal": 2950,
      "conflict": 2951,
      "sufficient": 2952,
      "answ": 2953,
      "pose": 2954,
      "shm": 2955,
      "izer": 2956,
      "gate": 2957,
      "star": 2958,
      "most": 2959,
      "truncate": 2960,
      "wps": 2961,
      "were": 2962,
      "xl": 2963,
      "dead": 2964,
      "through": 2965,
      "upper": 2966,
      "router": 2967,
      "ath": 2968,
      "exclu": 2969,
      "additional": 2970,
      "grab": 2971,
      "changing": 2972,
      "argin": 2973,
      "oom": 2974,
      "gssapi": 2975,
      "occurred": 2976,
      "udev": 2977,
      "wire": 2978,
      "gzip": 2979,
      "irc": 2980,
      "conv": 2981,
      "opts": 2982,
      "libc": 2983,
      "updated": 2984,
      "016": 2985,
      "jav": 2986,
      "mos": 2987,
      "tic": 2988,
      "70": 2989,
      "dro": 2990,
      "remain": 2991,
      "anon": 2992,
      "fifo": 2993,
      "compute": 2994,
      "mapped": 2995,
      "passwd": 2996,
      "attrib": 2997,
      "graphics": 2998,
      "kkc": 2999,
      "blank": 3000,
      "branch": 3001,
      "encrypted": 3002,
      "ras": 3003,
      "uct": 3004,
      "zy": 3005,
      "ename": 3006,
      "pause": 3007,
      "03x": 3008,
      "decoding": 3009,
      "ssh2": 3010,
      "x2": 3011,
      "chick": 3012,
      "sca": 3013,
      "vor": 3014,
      "reverse": 3015,
      "sex": 3016,
      "how": 3017,
      "physi": 3018,
      "sive": 3019,
      "stopped": 3020,
      "tuple": 3021,
      "zed": 3022,
      "numbers": 3023,
      "debugging": 3024,
      "overlay": 3025,
      "sqlite": 3026,
      "52": 3027,
      "r2": 3028,
      "ended": 3029,
      "anim": 3030,
      "consumer": 3031,
      "major": 3032,
      "zi": 3033,
      "ility": 3034,
      "512": 3035,
      "obex": 3036,
      "clus": 3037,
      "6s": 3038,
      "lb": 3039,
      "nm": 3040,
      "sectors": 3041,
      "topology": 3042,
      "fake": 3043,
      "addresses": 3044,
      "mv": 3045,
      "ude": 3046,
      "dataset": 3047,
      "perf": 3048,
      "arp": 3049,
      "manual": 3050,
      "pped": 3051,
      "critical": 3052,
      "expr": 3053,
      "scr": 3054,
      "lz": 3055,
      "oct": 3056,
      "ptp": 3057,
      "coming": 3058,
      "04d": 3059,
      "changes": 3060,
      "freq": 3061,
      "pseu": 3062,
      "tsocket": 3063,
      "ship": 3064,
      "42": 3065,
      "startup": 3066,
      "words": 3067,
      "quick": 3068,
      "finalize": 3069,
      "prompt": 3070,
      "ima": 3071,
      "rlm": 3072,
      "rfc": 3073,
      "ism": 3074,
      "pygame": 3075,
      "synchron": 3076,
      "erase": 3077,
      "tech": 3078,
      "persist": 3079,
      "minor": 3080,
      "winbindd": 3081,
      "pickle": 3082,
      "micro": 3083,
      "being": 3084,
      "feed": 3085,
      "67": 3086,
      "90": 3087,
      "cups": 3088,
      "mx": 3089,
      "repo": 3090,
      "phra": 3091,
      "deleting": 3092,
      "margin": 3093,
      "instruction": 3094,
      "impo": 3095,
      "longer": 3096,
      "tss2": 3097,
      "oth": 3098,
      "insufficient": 3099,
      "exact": 3100,
      "touch": 3101,
      "answer": 3102,
      "syslog": 3103,
      "pu": 3104,
      "mtp": 3105,
      "sb": 3106,
      "once": 3107,
      "rote": 3108,
      "oooo": 3109,
      "https": 3110,
      "monit": 3111,
      "fmt": 3112,
      "spif": 3113,
      "l2tp": 3114,
      "dcc": 3115,
      "za": 3116,
      "allen": 3117,
      "land": 3118,
      "rg": 3119,
      "smo": 3120,
      "laun": 3121,
      "svn": 3122,
      "leve": 3123,
      "tape": 3124,
      "returns": 3125,
      "product": 3126,
      "97": 3127,
      "annot": 3128,
      "tried": 3129,
      "rotation": 3130,
      "stroke": 3131,
      "deli": 3132,
      "edi": 3133,
      "ount": 3134,
      "choo": 3135,
      "pseudo": 3136,
      "gfs": 3137,
      "kalman": 3138,
      "photo": 3139,
      "wide": 3140,
      "ann": 3141,
      "til": 3142,
      "offsets": 3143,
      "digit": 3144,
      "email": 3145,
      "clients": 3146,
      "53": 3147,
      "lk": 3148,
      "person": 3149,
      "modified": 3150,
      "simul": 3151,
      "records": 3152,
      "hardware": 3153,
      "hor": 3154,
      "clifile": 3155,
      "denied": 3156,
      "secondary": 3157,
      "gamma": 3158,
      "5s": 3159,
      "specification": 3160,
      "analy": 3161,
      "glo": 3162,
      "vd": 3163,
      "adj": 3164,
      "quot": 3165,
      "assum": 3166,
      "eq": 3167,
      "sun": 3168,
      "ably": 3169,
      "within": 3170,
      "arger": 3171,
      "d3d10": 3172,
      "chicken": 3173,
      "song": 3174,
      "tre": 3175,
      "leav": 3176,
      "looking": 3177,
      "initi": 3178,
      "listening": 3179,
      "ltt": 3180,
      "68": 3181,
      "iver": 3182,
      "impossible": 3183,
      "8x": 3184,
      "rtnl": 3185,
      "moving": 3186,
      "mapper": 3187,
      "bottom": 3188,
      "libnet": 3189,
      "calloc": 3190,
      "lists": 3191,
      "cycle": 3192,
      "decimal": 3193,
      "oi": 3194,
      "pull": 3195,
      "v6": 3196,
      "orter": 3197,
      "isn": 3198,
      "ssp": 3199,
      "motion": 3200,
      "ay": 3201,
      "mq": 3202,
      "nat": 3203,
      "secs": 3204,
      "gnut": 3205,
      "2000": 3206,
      "ogg": 3207,
      "rv": 3208,
      "xmpp": 3209,
      "physical": 3210,
      "dum": 3211,
      "fram": 3212,
      "parsed": 3213,
      "sdp": 3214,
      "51": 3215,
      "dsa": 3216,
      "fx": 3217,
      "plot": 3218,
      "hx": 3219,
      "pect": 3220,
      "upload": 3221,
      "privilege": 3222,
      "gap": 3223,
      "gpg": 3224,
      "playback": 3225,
      "suffix": 3226,
      "mechan": 3227,
      "actual": 3228,
      "linked": 3229,
      "latency": 3230,
      "interpolative": 3231,
      "kind": 3232,
      "incoming": 3233,
      "modes": 3234,
      "supports": 3235,
      "mitted": 3236,
      "permissions": 3237,
      "phrase": 3238,
      "fg": 3239,
      "fits": 3240,
      "blessed": 3241,
      "img": 3242,
      "vl": 3243,
      "amd": 3244,
      "pts": 3245,
      "gps": 3246,
      "construct": 3247,
      "setstate": 3248,
      "pio": 3249,
      "structor": 3250,
      "optimi": 3251,
      "straint": 3252,
      "3g": 3253,
      "greg": 3254,
      "lua": 3255,
      "aux": 3256,
      "directive": 3257,
      "larger": 3258,
      "sct": 3259,
      "ckey": 3260,
      "quiet": 3261,
      "metho": 3262,
      "relation": 3263,
      "runtime": 3264,
      "iterator": 3265,
      "200s": 3266,
      "recording": 3267,
      "plane": 3268,
      "pur": 3269,
      "reload": 3270,
      "abo": 3271,
      "generator": 3272,
      "modifier": 3273,
      "a2": 3274,
      "round": 3275,
      "outside": 3276,
      "tail": 3277,
      "resources": 3278,
      "ablish": 3279,
      "span": 3280,
      "filters": 3281,
      "pixbuf": 3282,
      "increase": 3283,
      "43": 3284,
      "erver": 3285,
      "fire": 3286,
      "libusb": 3287,
      "aborted": 3288,
      "eo": 3289,
      "squ": 3290,
      "inconsist": 3291,
      "challen": 3292,
      "appro": 3293,
      "skin": 3294,
      "indexed": 3295,
      "temper": 3296,
      "strip": 3297,
      "probably": 3298,
      "broadband": 3299,
      "java": 3300,
      "bf": 3301,
      "padding": 3302,
      "tslibs": 3303,
      "quote": 3304,
      "accelerate": 3305,
      "hs": 3306,
      "dbwrap": 3307,
      "rotate": 3308,
      "flick": 3309,
      "fp": 3310,
      "wb": 3311,
      "tests": 3312,
      "since": 3313,
      "ounce": 3314,
      "fps": 3315,
      "redirect": 3316,
      "trap": 3317,
      "opcode": 3318,
      "theme": 3319,
      "license": 3320,
      "scanning": 3321,
      "gnutls": 3322,
      "sq": 3323,
      "sted": 3324,
      "also": 3325,
      "provide": 3326,
      "plus": 3327,
      "increment": 3328,
      "cgroup": 3329,
      "tm": 3330,
      "requests": 3331,
      "skipped": 3332,
      "freer": 3333,
      "browser": 3334,
      "bas": 3335,
      "ule": 3336,
      "moveto": 3337,
      "hmm": 3338,
      "nx": 3339,
      "methods": 3340,
      "equ": 3341,
      "hal": 3342,
      "ius": 3343,
      "unmarshal": 3344,
      "raid": 3345,
      "extensions": 3346,
      "challenge": 3347,
      "dfs": 3348,
      "refer": 3349,
      "12s": 3350,
      "rejected": 3351,
      "eb": 3352,
      "hmac": 3353,
      "incompatible": 3354,
      "alle": 3355,
      "lass": 3356,
      "best": 3357,
      "saving": 3358,
      "rtc": 3359,
      "frag": 3360,
      "detach": 3361,
      "expired": 3362,
      "pacity": 3363,
      "temperature": 3364,
      "happ": 3365,
      "mpd": 3366,
      "flat": 3367,
      "ified": 3368,
      "plain": 3369,
      "launch": 3370,
      "bis": 3371,
      "fro": 3372,
      "iker": 3373,
      "devel": 3374,
      "secrets": 3375,
      "gradient": 3376,
      "dummy": 3377,
      "75": 3378,
      "alled": 3379,
      "unpickle": 3380,
      "blend": 3381,
      "receiving": 3382,
      "executing": 3383,
      "apache": 3384,
      "nic": 3385,
      "wrote": 3386,
      "constraint": 3387,
      "asing": 3388,
      "skimage": 3389,
      "levels": 3390,
      "41": 3391,
      "bucket": 3392,
      "sessions": 3393,
      "exited": 3394,
      "sha1": 3395,
      "mkdir": 3396,
      "authorization": 3397,
      "anced": 3398,
      "directories": 3399,
      "endian": 3400,
      "bon": 3401,
      "uu": 3402,
      "unset": 3403,
      "verification": 3404,
      "intel": 3405,
      "stderr": 3406,
      "ability": 3407,
      "ttl": 3408,
      "interrupt": 3409,
      "v3": 3410,
      "pci": 3411,
      "locate": 3412,
      "123": 3413,
      "links": 3414,
      "busy": 3415,
      "succe": 3416,
      "assemb": 3417,
      "would": 3418,
      "ange": 3419,
      "vers": 3420,
      "strdup": 3421,
      "ntl": 3422,
      "circ": 3423,
      "registration": 3424,
      "ysis": 3425,
      "analysis": 3426,
      "eg": 3427,
      "ibr": 3428,
      "rap": 3429,
      "iss": 3430,
      "d3d11": 3431,
      "grade": 3432,
      "candidate": 3433,
      "arena": 3434,
      "emit": 3435,
      "paths": 3436,
      "prin": 3437,
      "resent": 3438,
      "sudo": 3439,
      "messaging": 3440,
      "destroyed": 3441,
      "bul": 3442,
      "cgi": 3443,
      "urn": 3444,
      "pref": 3445,
      "much": 3446,
      "establish": 3447,
      "trusted": 3448,
      "lttng": 3449,
      "ically": 3450,
      "schedul": 3451,
      "hv": 3452,
      "pce": 3453,
      "year": 3454,
      "lead": 3455,
      "seg": 3456,
      "always": 3457,
      "know": 3458,
      "chor": 3459,
      "fac": 3460,
      "sender": 3461,
      "d3d9": 3462,
      "compar": 3463,
      "capacity": 3464,
      "else": 3465,
      "sasl": 3466,
      "8e": 3467,
      "fon": 3468,
      "near": 3469,
      "calibr": 3470,
      "vcp": 3471,
      "units": 3472,
      "5f": 3473,
      "ki": 3474,
      "nice": 3475,
      "wan": 3476,
      "loss": 3477,
      "cha": 3478,
      "asure": 3479,
      "mtu": 3480,
      "animation": 3481,
      "bum": 3482,
      "lon": 3483,
      "converter": 3484,
      "cg": 3485,
      "fv": 3486,
      "never": 3487,
      "dcm": 3488,
      "globalized": 3489,
      "updating": 3490,
      "evalu": 3491,
      "hyper": 3492,
      "mechanism": 3493,
      "seto": 3494,
      "dom": 3495,
      "000000": 3496,
      "every": 3497,
      "kv": 3498,
      "life": 3499,
      "dos": 3500,
      "trail": 3501,
      "ios": 3502,
      "drivers": 3503,
      "wl": 3504,
      "sky": 3505,
      "overwrite": 3506,
      "pkt": 3507,
      "unur": 3508,
      "selector": 3509,
      "dhcp": 3510,
      "happen": 3511,
      "site": 3512,
      "ather": 3513,
      "mand": 3514,
      "didn": 3515,
      "gdk": 3516,
      "rid": 3517,
      "itude": 3518,
      "fid": 3519,
      "roster": 3520,
      "crop": 3521,
      "ka": 3522,
      "sense": 3523,
      "abs": 3524,
      "project": 3525,
      "pot": 3526,
      "handling": 3527,
      "gfx": 3528,
      "separator": 3529,
      "bookmark": 3530,
      "translation": 3531,
      "bearer": 3532,
      "sparse": 3533,
      "proces": 3534,
      "viewport": 3535,
      "accepted": 3536,
      "polkit": 3537,
      "remotedispatchdomain": 3538,
      "sprite": 3539,
      "recursive": 3540,
      "joystick": 3541,
      "hour": 3542,
      "jd": 3543,
      "erial": 3544,
      "inger": 3545,
      "issu": 3546,
      "notice": 3547,
      "lineto": 3548,
      "migr": 3549,
      "datetime": 3550,
      "coordinate": 3551,
      "8d": 3552,
      "bsd": 3553,
      "sst": 3554,
      "byname": 3555,
      "embed": 3556,
      "remaining": 3557,
      "nss": 3558,
      "vlan": 3559,
      "wt": 3560,
      "exch": 3561,
      "base64": 3562,
      "clusive": 3563,
      "glu": 3564,
      "tile": 3565,
      "click": 3566,
      "fcntl": 3567,
      "f2": 3568,
      "tap": 3569,
      "chap": 3570,
      "python": 3571,
      "encoded": 3572,
      "sheet": 3573,
      "acquire": 3574,
      "7s": 3575,
      "seem": 3576,
      "album": 3577,
      "spect": 3578,
      "completion": 3579,
      "ntlmssp": 3580,
      "supplied": 3581,
      "nbt": 3582,
      "editor": 3583,
      "live": 3584,
      "union": 3585,
      "aspect": 3586,
      "installed": 3587,
      "reach": 3588,
      "pkcs11": 3589,
      "freerdp": 3590,
      "atk": 3591,
      "sizes": 3592,
      "colour": 3593,
      "queu": 3594,
      "codes": 3595,
      "dropping": 3596,
      "1on": 3597,
      "qr": 3598,
      "raster": 3599,
      "require": 3600,
      "bandwidth": 3601,
      "anony": 3602,
      "assuming": 3603,
      "zlib": 3604,
      "ones": 3605,
      "mock": 3606,
      "material": 3607,
      "icc": 3608,
      "pixmap": 3609,
      "sensit": 3610,
      "suspend": 3611,
      "alternate": 3612,
      "acpi": 3613,
      "working": 3614,
      "exclude": 3615,
      "dma": 3616,
      "fnum": 3617,
      "hp": 3618,
      "je": 3619,
      "w3": 3620,
      "semanage": 3621,
      "fiid": 3622,
      "thumb": 3623,
      "obtain": 3624,
      "give": 3625,
      "visible": 3626,
      "packed": 3627,
      "idirectmusic": 3628,
      "s6": 3629,
      "internet": 3630,
      "dnss": 3631,
      "polyg": 3632,
      "cross": 3633,
      "jump": 3634,
      "trac": 3635,
      "reads": 3636,
      "ending": 3637,
      "3u": 3638,
      "lg": 3639,
      "ppm": 3640,
      "boundary": 3641,
      "dht": 3642,
      "tch": 3643,
      "inline": 3644,
      "finger": 3645,
      "front": 3646,
      "plug": 3647,
      "distribution": 3648,
      "processed": 3649,
      "87": 3650,
      "lude": 3651,
      "xmlns": 3652,
      "interfaces": 3653,
      "renderer": 3654,
      "2s": 3655,
      "mate": 3656,
      "someth": 3657,
      "cdr": 3658,
      "gray": 3659,
      "discovery": 3660,
      "mgmt": 3661,
      "fts": 3662,
      "recovery": 3663,
      "sampler": 3664,
      "89": 3665,
      "lus": 3666,
      "stun": 3667,
      "copying": 3668,
      "cdf": 3669,
      "ocsp": 3670,
      "discover": 3671,
      "coordinates": 3672,
      "bright": 3673,
      "replay": 3674,
      "isa": 3675,
      "id3": 3676,
      "rier": 3677,
      "prelude": 3678,
      "voke": 3679,
      "scanner": 3680,
      "vertical": 3681,
      "something": 3682,
      "qal": 3683,
      "cks": 3684,
      "iv2": 3685,
      "lv": 3686,
      "lux": 3687,
      "represent": 3688,
      "month": 3689,
      "entered": 3690,
      "strict": 3691,
      "00000000": 3692,
      "iscsi": 3693,
      "timing": 3694,
      "aml": 3695,
      "shard": 3696,
      "listing": 3697,
      "mono": 3698,
      "broadcast": 3699,
      "rasqal": 3700,
      "vorbis": 3701,
      "istream": 3702,
      "xfs": 3703,
      "inside": 3704,
      "leaf": 3705,
      "libinput": 3706,
      "wake": 3707,
      "ene": 3708,
      "chdir": 3709,
      "unused": 3710,
      "upgrade": 3711,
      "libg": 3712,
      "outfile": 3713,
      "ntp": 3714,
      "gltex": 3715,
      "85": 3716,
      "rsp": 3717,
      "lib64": 3718,
      "subst": 3719,
      "sockets": 3720,
      "mbim": 3721,
      "keepalive": 3722,
      "horiz": 3723,
      "unuran": 3724,
      "sou": 3725,
      "submit": 3726,
      "stereo": 3727,
      "hello": 3728,
      "ppp": 3729,
      "stopping": 3730,
      "detection": 3731,
      "legacy": 3732,
      "63": 3733,
      "cx": 3734,
      "pal": 3735,
      "velo": 3736,
      "serialize": 3737,
      "fds": 3738,
      "mpi": 3739,
      "disabling": 3740,
      "spectr": 3741,
      "mounted": 3742,
      "attached": 3743,
      "scalar": 3744,
      "choose": 3745,
      "79": 3746,
      "gus": 3747,
      "int64": 3748,
      "transcript": 3749,
      "freeing": 3750,
      "actions": 3751,
      "comments": 3752,
      "marshall": 3753,
      "continuing": 3754,
      "dash": 3755,
      "tstream": 3756,
      "ini": 3757,
      "pes": 3758,
      "ofs": 3759,
      "perl": 3760,
      "memcached": 3761,
      "repla": 3762,
      "moniker": 3763,
      "bri": 3764,
      "dtor": 3765,
      "ire": 3766,
      "zoom": 3767,
      "arrow": 3768,
      "ision": 3769,
      "calls": 3770,
      "printing": 3771,
      "generation": 3772,
      "gexiv2": 3773,
      "dropped": 3774,
      "osm": 3775,
      "yuv": 3776,
      "retriev": 3777,
      "eps": 3778,
      "xb": 3779,
      "infile": 3780,
      "resid": 3781,
      "gluster": 3782,
      "fru": 3783,
      "rank": 3784,
      "metrics": 3785,
      "composite": 3786,
      "b2": 3787,
      "ose": 3788,
      "pul": 3789,
      "aries": 3790,
      "dbm": 3791,
      "osinfo": 3792,
      "samdb": 3793,
      "hhx": 3794,
      "above": 3795,
      "3rd": 3796,
      "gpio": 3797,
      "dim": 3798,
      "digits": 3799,
      "means": 3800,
      "sctp": 3801,
      "apache2": 3802,
      "libz": 3803,
      "dove": 3804,
      "initialis": 3805,
      "gui": 3806,
      "dlna": 3807,
      "later": 3808,
      "succeeded": 3809,
      "4u": 3810,
      "drm": 3811,
      "xfer": 3812,
      "maps": 3813,
      "repli": 3814,
      "phone": 3815,
      "terminating": 3816,
      "reported": 3817,
      "idirectplay": 3818,
      "93": 3819,
      "cid": 3820,
      "dan": 3821,
      "qq": 3822,
      "eno": 3823,
      "pem": 3824,
      "peek": 3825,
      "interactive": 3826,
      "limits": 3827,
      "xxxxxx": 3828,
      "cost": 3829,
      "aggreg": 3830,
      "kerber": 3831,
      "communic": 3832,
      "hig": 3833,
      "occ": 3834,
      "xkb": 3835,
      "mp3": 3836,
      "utc": 3837,
      "these": 3838,
      "framebuffer": 3839,
      "assignment": 3840,
      "artist": 3841,
      "ben": 3842,
      "fri": 3843,
      "geom": 3844,
      "ends": 3845,
      "80s": 3846,
      "dimensions": 3847,
      "cdb": 3848,
      "rspa": 3849,
      "pace": 3850,
      "sms": 3851,
      "crash": 3852,
      "operations": 3853,
      "ibility": 3854,
      "multit": 3855,
      "fuzz": 3856,
      "62": 3857,
      "eth": 3858,
      "nf": 3859,
      "sses": 3860,
      "opa": 3861,
      "asc": 3862,
      "cliconnect": 3863,
      "subscription": 3864,
      "receiver": 3865,
      "tracks": 3866,
      "declare": 3867,
      "kerberos": 3868,
      "lier": 3869,
      "quad": 3870,
      "ip6": 3871,
      "locking": 3872,
      "dbg": 3873,
      "activity": 3874,
      "sampling": 3875,
      "princip": 3876,
      "inher": 3877,
      "seen": 3878,
      "until": 3879,
      "addrinfo": 3880,
      "radius": 3881,
      "bjects": 3882,
      "iff": 3883,
      "wmp": 3884,
      "apr": 3885,
      "below": 3886,
      "icq": 3887,
      "xmlsec": 3888,
      "terminate": 3889,
      "umock": 3890,
      "iser": 3891,
      "ison": 3892,
      "gettype": 3893,
      "tify": 3894,
      "65": 3895,
      "portal": 3896,
      "dbc": 3897,
      "rans": 3898,
      "huge": 3899,
      "cas": 3900,
      "fops": 3901,
      "chk": 3902,
      "heal": 3903,
      "smtp": 3904,
      "fsck": 3905,
      "operand": 3906,
      "principal": 3907,
      "d2": 3908,
      "fec": 3909,
      "refcount": 3910,
      "dirty": 3911,
      "2001": 3912,
      "letter": 3913,
      "regexp": 3914,
      "calculate": 3915,
      "neighbors": 3916,
      "yaml": 3917,
      "authenticate": 3918,
      "leaving": 3919,
      "iid": 3920,
      "nw": 3921,
      "ogram": 3922,
      "unimplemented": 3923,
      "wind": 3924,
      "takes": 3925,
      "pv": 3926,
      "ley": 3927,
      "bogus": 3928,
      "minut": 3929,
      "mysql": 3930,
      "bluez": 3931,
      "interrupted": 3932,
      "hide": 3933,
      "h264": 3934,
      "m2": 3935,
      "mdb": 3936,
      "repair": 3937,
      "atip": 3938,
      "aaaa": 3939,
      "automatically": 3940,
      "aut": 3941,
      "bun": 3942,
      "cw": 3943,
      "decompress": 3944,
      "opus": 3945,
      "dic": 3946,
      "sdl2": 3947,
      "visit": 3948,
      "whether": 3949,
      "400": 3950,
      "px": 3951,
      "devi": 3952,
      "scp": 3953,
      "limited": 3954,
      "pipeline": 3955,
      "google": 3956,
      "management": 3957,
      "umockdev": 3958,
      "sse": 3959,
      "vcd": 3960,
      "ati": 3961,
      "tif": 3962,
      "prefer": 3963,
      "mirr": 3964,
      "1000": 3965,
      "octet": 3966,
      "processes": 3967,
      "opaque": 3968,
      "83": 3969,
      "grow": 3970,
      "anchor": 3971,
      "ssrc": 3972,
      "inity": 3973,
      "generating": 3974,
      "ird": 3975,
      "counters": 3976,
      "atomic": 3977,
      "git": 3978,
      "lcd": 3979,
      "wild": 3980,
      "stu": 3981,
      "copi": 3982,
      "signon": 3983,
      "samba": 3984,
      "expan": 3985,
      "expire": 3986,
      "fallback": 3987,
      "inconsistent": 3988,
      "bid": 3989,
      "mor": 3990,
      "rl": 3991,
      "ris": 3992,
      "semap": 3993,
      "blocksize": 3994,
      "fully": 3995,
      "declared": 3996,
      "gpt": 3997,
      "chart": 3998,
      "virus": 3999,
      "replacement": 4000,
      "libvirtguest": 4001,
      "lls": 4002,
      "nump": 4003,
      "slow": 4004,
      "shel": 4005,
      "mini": 4006,
      "checkpoint": 4007,
      "ontal": 4008,
      "proced": 4009,
      "deriv": 4010,
      "performance": 4011,
      "semapho": 4012,
      "92": 4013,
      "vx": 4014,
      "geth": 4015,
      "abstr": 4016,
      "lsn": 4017,
      "confirm": 4018,
      "testing": 4019,
      "against": 4020,
      "osd": 4021,
      "tz": 4022,
      "measure": 4023,
      "prot": 4024,
      "quant": 4025,
      "coding": 4026,
      "wise": 4027,
      "dav": 4028,
      "gdbus": 4029,
      "allocator": 4030,
      "wee": 4031,
      "searching": 4032,
      "batch": 4033,
      "mble": 4034,
      "exclusive": 4035,
      "asn": 4036,
      "amqp": 4037,
      "amount": 4038,
      "265": 4039,
      "volt": 4040,
      "assembly": 4041,
      "btr": 4042,
      "netr": 4043,
      "getinfo": 4044,
      "siz": 4045,
      "interion": 4046,
      "pyqt": 4047,
      "csatip": 4048,
      "segments": 4049,
      "stype": 4050,
      "beginning": 4051,
      "mpegts": 4052,
      "tlv": 4053,
      "automatic": 4054,
      "minutes": 4055,
      "readable": 4056,
      "rcv": 4057,
      "caller": 4058,
      "containing": 4059,
      "histogram": 4060,
      "cinterion": 4061,
      "jit": 4062,
      "sep": 4063,
      "profiles": 4064,
      "paralle": 4065,
      "scaling": 4066,
      "interpret": 4067,
      "horizontal": 4068,
      "61": 4069,
      "epoll": 4070,
      "trip": 4071,
      "transition": 4072,
      "havi": 4073,
      "floating": 4074,
      "medium": 4075,
      "2u": 4076,
      "fstat": 4077,
      "sli": 4078,
      "ingle": 4079,
      "adb": 4080,
      "ads": 4081,
      "unavailable": 4082,
      "them": 4083,
      "127": 4084,
      "rtmp": 4085,
      "ensity": 4086,
      "preser": 4087,
      "substit": 4088,
      "btrfs": 4089,
      "bgp": 4090,
      "gli": 4091,
      "i3": 4092,
      "ny": 4093,
      "pty": 4094,
      "rdp": 4095,
      "t1": 4096,
      "tid": 4097,
      "vdr": 4098,
      "behavi": 4099,
      "xxx": 4100,
      "comma": 4101,
      "resolver": 4102,
      "d3dx9": 4103,
      "dtls": 4104,
      "dsync": 4105,
      "lite": 4106,
      "oss": 4107,
      "spar": 4108,
      "passphrase": 4109,
      "d3d8": 4110,
      "mous": 4111,
      "targets": 4112,
      "ah00": 4113,
      "socks5": 4114,
      "glusterfs": 4115,
      "ae": 4116,
      "far": 4117,
      "atory": 4118,
      "station": 4119,
      "conti": 4120,
      "sysfs": 4121,
      "grammar": 4122,
      "descriptors": 4123,
      "librdf": 4124,
      "announce": 4125,
      "gpgme": 4126,
      "sdb": 4127,
      "calign": 4128,
      "pcr": 4129,
      "accessible": 4130,
      "1394": 4131,
      "explicit": 4132,
      "retries": 4133,
      "nano": 4134,
      "awe": 4135,
      "bz": 4136,
      "garb": 4137,
      "sftp": 4138,
      "resetting": 4139,
      "listed": 4140,
      "berke": 4141,
      "buffered": 4142,
      "traf": 4143,
      "variation": 4144,
      "references": 4145,
      "included": 4146,
      "choice": 4147,
      "problems": 4148,
      "8859": 4149,
      "chroma": 4150,
      "abstract": 4151,
      "aio": 4152,
      "qstring": 4153,
      "arc": 4154,
      "permitted": 4155,
      "argv": 4156,
      "loadparm": 4157,
      "displays": 4158,
      "topic": 4159,
      "gpfs": 4160,
      "kick": 4161,
      "ned": 4162,
      "atspi": 4163,
      "moved": 4164,
      "ambig": 4165,
      "rag": 4166,
      "primit": 4167,
      "lane": 4168,
      "execution": 4169,
      "implementation": 4170,
      "diagno": 4171,
      "replica": 4172,
      "berkeley": 4173,
      "lws": 4174,
      "reuse": 4175,
      "memo": 4176,
      "outgoing": 4177,
      "hts": 4178,
      "2002": 4179,
      "inherit": 4180,
      "away": 4181,
      "jingle": 4182,
      "zation": 4183,
      "amand": 4184,
      "intro": 4185,
      "foo": 4186,
      "locks": 4187,
      "news": 4188,
      "tlsv1": 4189,
      "7d": 4190,
      "sess": 4191,
      "alter": 4192,
      "meter": 4193,
      "namequery": 4194,
      "boost": 4195,
      "checks": 4196,
      "world": 4197,
      "specifies": 4198,
      "copy2": 4199,
      "identify": 4200,
      "spectrum": 4201,
      "virusfilter": 4202,
      "semaphore": 4203,
      "9s": 4204,
      "aw": 4205,
      "online": 4206,
      "consid": 4207,
      "iterative": 4208,
      "mtk": 4209,
      "txn": 4210,
      "presence": 4211,
      "switching": 4212,
      "imported": 4213,
      "uint32": 4214,
      "radio": 4215,
      "queued": 4216,
      "multitex": 4217,
      "c2": 4218,
      "dll": 4219,
      "ether": 4220,
      "won": 4221,
      "moment": 4222,
      "curses": 4223,
      "voltage": 4224,
      "consider": 4225,
      "h1": 4226,
      "ko": 4227,
      "unmap": 4228,
      "dog": 4229,
      "datatype": 4230,
      "dbd": 4231,
      "ared": 4232,
      "subnet": 4233,
      "marked": 4234,
      "caught": 4235,
      "pmem": 4236,
      "udf": 4237,
      "aln": 4238,
      "vie": 4239,
      "playing": 4240,
      "pathname": 4241,
      "winpr": 4242,
      "drv": 4243,
      "maybe": 4244,
      "writable": 4245,
      "recognised": 4246,
      "hier": 4247,
      "discarding": 4248,
      "parallel": 4249,
      "primitive": 4250,
      "bn": 4251,
      "bree": 4252,
      "eos": 4253,
      "gz": 4254,
      "hdf": 4255,
      "pmix": 4256,
      "zen": 4257,
      "onto": 4258,
      "ensure": 4259,
      "copen": 4260,
      "tell": 4261,
      "creds": 4262,
      "rectangle": 4263,
      "protocols": 4264,
      "encryptupdate": 4265,
      "shutting": 4266,
      "gsf": 4267,
      "associated": 4268,
      "rspamd": 4269,
      "500": 4270,
      "har": 4271,
      "kbd": 4272,
      "ener": 4273,
      "fax": 4274,
      "emul": 4275,
      "subsystem": 4276,
      "controls": 4277,
      "flood": 4278,
      "gpu": 4279,
      "adaptorfetch": 4280,
      "fonts": 4281,
      "nav": 4282,
      "invoke": 4283,
      "colormap": 4284,
      "pidfile": 4285,
      "attempted": 4286,
      "ah0": 4287,
      "016lx": 4288,
      "hb": 4289,
      "mcd": 4290,
      "might": 4291,
      "retrying": 4292,
      "emulation": 4293,
      "odd": 4294,
      "existent": 4295,
      "dtmf": 4296,
      "executable": 4297,
      "amanda": 4298,
      "breezy": 4299,
      "aj": 4300,
      "iu": 4301,
      "pkey": 4302,
      "p11": 4303,
      "pitch": 4304,
      "edsegment": 4305,
      "libcalign": 4306,
      "sources": 4307,
      "findo": 4308,
      "utility": 4309,
      "reports": 4310,
      "destroying": 4311,
      "seeking": 4312,
      "deny": 4313,
      "balance": 4314,
      "libcalignedsegment": 4315,
      "ach": 4316,
      "epo": 4317,
      "nex": 4318,
      "ckm": 4319,
      "usable": 4320,
      "andom": 4321,
      "river": 4322,
      "dbi": 4323,
      "logged": 4324,
      "gister": 4325,
      "clut": 4326,
      "overlap": 4327,
      "iteration": 4328,
      "cbc": 4329,
      "panel": 4330,
      "bank": 4331,
      "percentage": 4332,
      "subscribe": 4333,
      "indicator": 4334,
      "802": 4335,
      "cue": 4336,
      "dtd": 4337,
      "gvfs": 4338,
      "hop": 4339,
      "libmtp": 4340,
      "lsp": 4341,
      "anonymous": 4342,
      "garbage": 4343,
      "ambigu": 4344,
      "findobjects": 4345,
      "emu": 4346,
      "lr": 4347,
      "constructor": 4348,
      "starts": 4349,
      "seccomp": 4350,
      "conference": 4351,
      "resolved": 4352,
      "bios": 4353,
      "persistent": 4354,
      "3gpp": 4355,
      "69": 4356,
      "salt": 4357,
      "vgl": 4358,
      "y2": 4359,
      "chip": 4360,
      "tmpl": 4361,
      "foreground": 4362,
      "country": 4363,
      "uint64": 4364,
      "separated": 4365,
      "precision": 4366,
      "scaled": 4367,
      "preference": 4368,
      "mirror": 4369,
      "5u": 4370,
      "ili": 4371,
      "klass": 4372,
      "uth": 4373,
      "readdir": 4374,
      "logs": 4375,
      "preview": 4376,
      "pyobject": 4377,
      "crl": 4378,
      "dyn": 4379,
      "helpers": 4380,
      "schedule": 4381,
      "brain": 4382,
      "gateway": 4383,
      "monitoring": 4384,
      "bundle": 4385,
      "diagnost": 4386,
      "iq": 4387,
      "rtr": 4388,
      "orient": 4389,
      "foreign": 4390,
      "activation": 4391,
      "verbos": 4392,
      "xdg": 4393,
      "persona": 4394,
      "privileges": 4395,
      "bulk": 4396,
      "scheduler": 4397,
      "ball": 4398,
      "gres": 4399,
      "kd": 4400,
      "vac": 4401,
      "alarm": 4402,
      "toc": 4403,
      "aps": 4404,
      "etter": 4405,
      "cach": 4406,
      "pyproj": 4407,
      "250": 4408,
      "nbsp": 4409,
      "slots": 4410,
      "polygon": 4411,
      "gers": 4412,
      "lseek": 4413,
      "deleg": 4414,
      "getaddrinfo": 4415,
      "creat": 4416,
      "perm": 4417,
      "logout": 4418,
      "ordering": 4419,
      "flushing": 4420,
      "collect": 4421,
      "clipper": 4422,
      "calibration": 4423,
      "dce": 4424,
      "sbin": 4425,
      "room": 4426,
      "apc": 4427,
      "prio": 4428,
      "cdrom": 4429,
      "dcmtk": 4430,
      "jobs": 4431,
      "clipboard": 4432,
      "assigned": 4433,
      "flickr": 4434,
      "procedure": 4435,
      "gpl": 4436,
      "nil": 4437,
      "nail": 4438,
      "sis": 4439,
      "sgi": 4440,
      "nested": 4441,
      "parts": 4442,
      "bye": 4443,
      "sockaddr": 4444,
      "symbolic": 4445,
      "mandatory": 4446,
      "hum": 4447,
      "odbc": 4448,
      "pcre": 4449,
      "sen": 4450,
      "x86": 4451,
      "ond": 4452,
      "para": 4453,
      "coll": 4454,
      "states": 4455,
      "huawe": 4456,
      "ffffffff": 4457,
      "flip": 4458,
      "exactly": 4459,
      "analyzer": 4460,
      "verbosity": 4461,
      "aac": 4462,
      "bdb": 4463,
      "gfid": 4464,
      "h2": 4465,
      "tb": 4466,
      "reconnect": 4467,
      "pak": 4468,
      "doing": 4469,
      "streaming": 4470,
      "updates": 4471,
      "crs": 4472,
      "accessor": 4473,
      "postscript": 4474,
      "really": 4475,
      "activated": 4476,
      "pairs": 4477,
      "zip2": 4478,
      "panic": 4479,
      "2022": 4480,
      "alternative": 4481,
      "seems": 4482,
      "gau": 4483,
      "sx": 4484,
      "vr": 4485,
      "xmm": 4486,
      "xdp": 4487,
      "forced": 4488,
      "keymap": 4489,
      "mize": 4490,
      "stale": 4491,
      "goto": 4492,
      "positions": 4493,
      "milli": 4494,
      "indent": 4495,
      "embedded": 4496,
      "huawei": 4497,
      "ace": 4498,
      "vnc": 4499,
      "mpg": 4500,
      "past": 4501,
      "had": 4502,
      "kil": 4503,
      "deep": 4504,
      "asis": 4505,
      "gene": 4506,
      "evp": 4507,
      "virdomain": 4508,
      "30s": 4509,
      "gettypeinfo": 4510,
      "1x": 4511,
      "84": 4512,
      "exe": 4513,
      "fails": 4514,
      "las": 4515,
      "beat": 4516,
      "newline": 4517,
      "blocked": 4518,
      "well": 4519,
      "criter": 4520,
      "publish": 4521,
      "separate": 4522,
      "immedi": 4523,
      "dnsserver": 4524,
      "fingerprint": 4525,
      "brightness": 4526,
      "libvirtguesttable": 4527,
      "82": 4528,
      "ao": 4529,
      "gstr": 4530,
      "mh": 4531,
      "ral": 4532,
      "ufact": 4533,
      "ctf": 4534,
      "acd": 4535,
      "trie": 4536,
      "refusing": 4537,
      "elli": 4538,
      "asyn": 4539,
      "writes": 4540,
      "pop3": 4541,
      "cube": 4542,
      "commune": 4543,
      "thumbnail": 4544,
      "hierarch": 4545,
      "bpf": 4546,
      "inqui": 4547,
      "rele": 4548,
      "lox": 4549,
      "logo": 4550,
      "apple": 4551,
      "svg": 4552,
      "attributevalue": 4553,
      "postgres": 4554,
      "uc": 4555,
      "vas": 4556,
      "semi": 4557,
      "und": 4558,
      "movie": 4559,
      "timeline": 4560,
      "lence": 4561,
      "ranges": 4562,
      "brush": 4563,
      "pkg": 4564,
      "xmlsecopen": 4565,
      "1c": 4566,
      "73": 4567,
      "fopen": 4568,
      "xor": 4569,
      "stmt": 4570,
      "datas": 4571,
      "mature": 4572,
      "ivity": 4573,
      "closure": 4574,
      "2003": 4575,
      "naming": 4576,
      "sha256": 4577,
      "building": 4578,
      "iconv": 4579,
      "pcep": 4580,
      "jpg": 4581,
      "rem": 4582,
      "ors": 4583,
      "stp": 4584,
      "poe": 4585,
      "ipp": 4586,
      "02i": 4587,
      "sdr": 4588,
      "ously": 4589,
      "pository": 4590,
      "lifetime": 4591,
      "xrd": 4592,
      "xpm": 4593,
      "defa": 4594,
      "chroot": 4595,
      "undo": 4596,
      "buff": 4597,
      "fft": 4598,
      "icns": 4599,
      "bold": 4600,
      "spat": 4601,
      "premature": 4602,
      "smaller": 4603,
      "authority": 4604,
      "xmlu": 4605,
      "routing": 4606,
      "proceed": 4607,
      "appears": 4608,
      "initialisation": 4609,
      "ambiguous": 4610,
      "74": 4611,
      "a0": 4612,
      "bfd": 4613,
      "lba": 4614,
      "mhz": 4615,
      "xsd": 4616,
      "orage": 4617,
      "ato": 4618,
      "rol": 4619,
      "team": 4620,
      "gran": 4621,
      "tooth": 4622,
      "arrays": 4623,
      "labels": 4624,
      "half": 4625,
      "issue": 4626,
      "soup": 4627,
      "weechat": 4628,
      "bw": 4629,
      "khr": 4630,
      "ya": 4631,
      "enabling": 4632,
      "defs": 4633,
      "prox": 4634,
      "rip": 4635,
      "ctions": 4636,
      "extend": 4637,
      "heart": 4638,
      "pydev": 4639,
      "glmultitex": 4640,
      "checked": 4641,
      "health": 4642,
      "berkeleydb": 4643,
      "hang": 4644,
      "ua": 4645,
      "xn": 4646,
      "ana": 4647,
      "unwrap": 4648,
      "forcing": 4649,
      "asn1": 4650,
      "usec": 4651,
      "ska": 4652,
      "glprogram": 4653,
      "irq": 4654,
      "tokens": 4655,
      "gphoto": 4656,
      "preferred": 4657,
      "ln": 4658,
      "witch": 4659,
      "xf": 4660,
      "ons": 4661,
      "getr": 4662,
      "rio": 4663,
      "ordered": 4664,
      "twice": 4665,
      "realtime": 4666,
      "immediate": 4667,
      "gom": 4668,
      "smp": 4669,
      "rever": 4670,
      "sem": 4671,
      "scene": 4672,
      "interlace": 4673,
      "mbr": 4674,
      "ieee": 4675,
      "uint8": 4676,
      "enumerate": 4677,
      "frozen": 4678,
      "traffic": 4679,
      "3i": 4680,
      "pwd": 4681,
      "rdf": 4682,
      "sea": 4683,
      "toler": 4684,
      "unref": 4685,
      "exchange": 4686,
      "setattr": 4687,
      "tel": 4688,
      "applied": 4689,
      "ublox": 4690,
      "handlers": 4691,
      "sequences": 4692,
      "inotify": 4693,
      "wayland": 4694,
      "behavior": 4695,
      "stan": 4696,
      "chmod": 4697,
      "formatted": 4698,
      "offline": 4699,
      "correctly": 4700,
      "aliase": 4701,
      "ciptv": 4702,
      "protected": 4703,
      "xlator": 4704,
      "epoch": 4705,
      "aws": 4706,
      "fsync": 4707,
      "vf": 4708,
      "enh": 4709,
      "ane": 4710,
      "around": 4711,
      "noise": 4712,
      "notes": 4713,
      "sioc": 4714,
      "linalg": 4715,
      "difference": 4716,
      "bench": 4717,
      "dvi": 4718,
      "ddc": 4719,
      "gri": 4720,
      "mad": 4721,
      "x1": 4722,
      "keyfile": 4723,
      "warran": 4724,
      "replication": 4725,
      "games": 4726,
      "related": 4727,
      "sounds": 4728,
      "indices": 4729,
      "association": 4730,
      "a1": 4731,
      "fm": 4732,
      "repository": 4733,
      "paren": 4734,
      "scat": 4735,
      "02hhx": 4736,
      "acct": 4737,
      "tpms": 4738,
      "manufact": 4739,
      "voc": 4740,
      "32s": 4741,
      "domains": 4742,
      "cmdline": 4743,
      "1999": 4744,
      "managed": 4745,
      "members": 4746,
      "xmlsect": 4747,
      "smooth": 4748,
      "pkcs11h": 4749,
      "bm": 4750,
      "iro": 4751,
      "nitems": 4752,
      "oes": 4753,
      "sit": 4754,
      "sch": 4755,
      "v0": 4756,
      "vmod": 4757,
      "nov": 4758,
      "urer": 4759,
      "bey": 4760,
      "colli": 4761,
      "giving": 4762,
      "correction": 4763,
      "graphic": 4764,
      "fulls": 4765,
      "06x": 4766,
      "mediatype": 4767,
      "supply": 4768,
      "elem": 4769,
      "dere": 4770,
      "iet": 4771,
      "pn": 4772,
      "udio": 4773,
      "intr": 4774,
      "thand": 4775,
      "peak": 4776,
      "made": 4777,
      "vise": 4778,
      "libnetapi": 4779,
      "datum": 4780,
      "suit": 4781,
      "connector": 4782,
      "apped": 4783,
      "few": 4784,
      "exponent": 4785,
      "pressed": 4786,
      "solve": 4787,
      "superblock": 4788,
      "protein": 4789,
      "numpy": 4790,
      "110": 4791,
      "borg": 4792,
      "dts": 4793,
      "eli": 4794,
      "l1": 4795,
      "unrecognised": 4796,
      "tiff": 4797,
      "solid": 4798,
      "hot": 4799,
      "prime": 4800,
      "multipart": 4801,
      "dumping": 4802,
      "components": 4803,
      "definitions": 4804,
      "issuer": 4805,
      "css": 4806,
      "dpi": 4807,
      "mft": 4808,
      "noutput": 4809,
      "ycle": 4810,
      "inner": 4811,
      "chown": 4812,
      "ida": 4813,
      "exif": 4814,
      "extern": 4815,
      "classes": 4816,
      "mtx": 4817,
      "partitions": 4818,
      "watchdog": 4819,
      "middle": 4820,
      "reachable": 4821,
      "ettercap": 4822,
      "dk": 4823,
      "cells": 4824,
      "cop": 4825,
      "idz": 4826,
      "maild": 4827,
      "mov": 4828,
      "tevent": 4829,
      "strate": 4830,
      "matro": 4831,
      "bugs": 4832,
      "signing": 4833,
      "claim": 4834,
      "dirs": 4835,
      "iterate": 4836,
      "clearing": 4837,
      "reserve": 4838,
      "composition": 4839,
      "bur": 4840,
      "xh": 4841,
      "rected": 4842,
      "tos": 4843,
      "neither": 4844,
      "vala": 4845,
      "audi": 4846,
      "ifd": 4847,
      "gnup": 4848,
      "streambuf": 4849,
      "days": 4850,
      "realm": 4851,
      "canonical": 4852,
      "falling": 4853,
      "extents": 4854,
      "feedback": 4855,
      "doveadm": 4856,
      "spatial": 4857,
      "jab": 4858,
      "ycf": 4859,
      "instr": 4860,
      "cos": 4861,
      "mpls": 4862,
      "poss": 4863,
      "int32": 4864,
      "grp": 4865,
      "opendir": 4866,
      "specifier": 4867,
      "vtk": 4868,
      "presentation": 4869,
      "bindings": 4870,
      "calculated": 4871,
      "steps": 4872,
      "vec4": 4873,
      "sensitive": 4874,
      "rq": 4875,
      "erate": 4876,
      "delimit": 4877,
      "usri": 4878,
      "become": 4879,
      "keytab": 4880,
      "mib": 4881,
      "srtp": 4882,
      "preserve": 4883,
      "energy": 4884,
      "fullscreen": 4885,
      "cpy": 4886,
      "pnm": 4887,
      "stage": 4888,
      "decre": 4889,
      "mech": 4890,
      "simp": 4891,
      "pie": 4892,
      "configfile": 4893,
      "regedit": 4894,
      "prints": 4895,
      "tagged": 4896,
      "resolving": 4897,
      "clutter": 4898,
      "cwd": 4899,
      "lugin": 4900,
      "preset": 4901,
      "ioc": 4902,
      "decoded": 4903,
      "autor": 4904,
      "tolerance": 4905,
      "108": 4906,
      "fut": 4907,
      "pho": 4908,
      "qquick": 4909,
      "spo": 4910,
      "reiser": 4911,
      "forwar": 4912,
      "ticket": 4913,
      "hasht": 4914,
      "applic": 4915,
      "colorspace": 4916,
      "freed": 4917,
      "protection": 4918,
      "integrate": 4919,
      "negotiation": 4920,
      "pydevd": 4921,
      "warranty": 4922,
      "c0": 4923,
      "jid": 4924,
      "vrf": 4925,
      "descri": 4926,
      "asm": 4927,
      "predi": 4928,
      "gio": 4929,
      "tries": 4930,
      "imal": 4931,
      "chunks": 4932,
      "little": 4933,
      "swapchain": 4934,
      "routine": 4935,
      "lapsed": 4936,
      "negotiate": 4937,
      "greenlet": 4938,
      "glvertexattrib": 4939,
      "marshalling": 4940,
      "communication": 4941,
      "8f": 4942,
      "8ld": 4943,
      "crt": 4944,
      "hhu": 4945,
      "jail": 4946,
      "mip": 4947,
      "tds": 4948,
      "wing": 4949,
      "inject": 4950,
      "eng": 4951,
      "lies": 4952,
      "terms": 4953,
      "asf": 4954,
      "logic": 4955,
      "triangle": 4956,
      "impro": 4957,
      "registering": 4958,
      "signals": 4959,
      "probing": 4960,
      "abcdefghijklmnopqrstuvwxyzabcdefghijklmnopqrstuvwxyz": 4961,
      "gphoto2": 4962,
      "ietf": 4963,
      "dgram": 4964,
      "hou": 4965,
      "nedit": 4966,
      "gettime": 4967,
      "beta": 4968,
      "mathe": 4969,
      "08llx": 4970,
      "requesting": 4971,
      "11u": 4972,
      "dxgi": 4973,
      "tuner": 4974,
      "cancelled": 4975,
      "affinity": 4976,
      "trailing": 4977,
      "maildir": 4978,
      "71": 4979,
      "bp": 4980,
      "gnet": 4981,
      "rsc": 4982,
      "enced": 4983,
      "deg": 4984,
      "chi": 4985,
      "chord": 4986,
      "concat": 4987,
      "mps": 4988,
      "esp": 4989,
      "suite": 4990,
      "logger": 4991,
      "suppress": 4992,
      "csv": 4993,
      "unexpectedly": 4994,
      "popup": 4995,
      "effective": 4996,
      "exported": 4997,
      "quoted": 4998,
      "jitter": 4999,
      "killed": 5000,
      "cfa": 5001,
      "fname": 5002,
      "hl": 5003,
      "jet": 5004,
      "xv": 5005,
      "inactive": 5006,
      "stable": 5007,
      "edid": 5008,
      "exper": 5009,
      "mpo": 5010,
      "sized": 5011,
      "silence": 5012,
      "disp": 5013,
      "fine": 5014,
      "rowser": 5015,
      "muxer": 5016,
      "sorted": 5017,
      "protect": 5018,
      "glmultitexcoord": 5019,
      "420": 5020,
      "efi": 5021,
      "irpc": 5022,
      "rlineto": 5023,
      "ync": 5024,
      "reopen": 5025,
      "roh": 5026,
      "10lu": 5027,
      "debugcontrol": 5028,
      "192": 5029,
      "solver": 5030,
      "cards": 5031,
      "focuser": 5032,
      "jabber": 5033,
      "fclose": 5034,
      "ode": 5035,
      "qry": 5036,
      "reloc": 5037,
      "fig": 5038,
      "ropy": 5039,
      "forms": 5040,
      "gets": 5041,
      "they": 5042,
      "duk": 5043,
      "netconf": 5044,
      "refused": 5045,
      "buttons": 5046,
      "rendering": 5047,
      "established": 5048,
      "mathemat": 5049,
      "bsl": 5050,
      "fop": 5051,
      "js": 5052,
      "porter": 5053,
      "rle": 5054,
      "vh": 5055,
      "reboot": 5056,
      "sect": 5057,
      "mass": 5058,
      "parity": 5059,
      "creator": 5060,
      "esc": 5061,
      "solete": 5062,
      "vars": 5063,
      "120": 5064,
      "oked": 5065,
      "mtd": 5066,
      "2005": 5067,
      "encil": 5068,
      "hibit": 5069,
      "guess": 5070,
      "chapter": 5071,
      "matroska": 5072,
      "hub": 5073,
      "nfc": 5074,
      "qm": 5075,
      "isds": 5076,
      "une": 5077,
      "getslot": 5078,
      "val2": 5079,
      "scram": 5080,
      "accur": 5081,
      "clause": 5082,
      "ecdsa": 5083,
      "20g": 5084,
      "compressor": 5085,
      "4th": 5086,
      "ita": 5087,
      "fish": 5088,
      "file1": 5089,
      "mole": 5090,
      "paper": 5091,
      "subtype": 5092,
      "imate": 5093,
      "tmpst": 5094,
      "php": 5095,
      "anyway": 5096,
      "attack": 5097,
      "highlight": 5098,
      "catia": 5099,
      "1024": 5100,
      "purge": 5101,
      "dun": 5102,
      "tct": 5103,
      "stencil": 5104,
      "alph": 5105,
      "unity": 5106,
      "peration": 5107,
      "cies": 5108,
      "04lx": 5109,
      "spaces": 5110,
      "modific": 5111,
      "mpeg2": 5112,
      "attachment": 5113,
      "ssian": 5114,
      "satip": 5115,
      "ech": 5116,
      "imat": 5117,
      "vhost": 5118,
      "wall": 5119,
      "ings": 5120,
      "formu": 5121,
      "profil": 5122,
      "their": 5123,
      "ecc": 5124,
      "marisa": 5125,
      "dax": 5126,
      "inserted": 5127,
      "pfx": 5128,
      "authorized": 5129,
      "browse": 5130,
      "hints": 5131,
      "wheel": 5132,
      "delivery": 5133,
      "occure": 5134,
      "ghost": 5135,
      "jj": 5136,
      "khz": 5137,
      "rss": 5138,
      "lient": 5139,
      "paused": 5140,
      "strange": 5141,
      "obsolete": 5142,
      "streamer": 5143,
      "frr": 5144,
      "warnings": 5145,
      "properly": 5146,
      "except": 5147,
      "sections": 5148,
      "9ld": 5149,
      "nbits": 5150,
      "oem": 5151,
      "r3": 5152,
      "tux": 5153,
      "infl": 5154,
      "sever": 5155,
      "lirc": 5156,
      "tick": 5157,
      "minij": 5158,
      "charge": 5159,
      "recip": 5160,
      "apps": 5161,
      "eread": 5162,
      "nonce": 5163,
      "responding": 5164,
      "grace": 5165,
      "wanted": 5166,
      "wakeup": 5167,
      "beyond": 5168,
      "minijail": 5169,
      "cmap": 5170,
      "kt": 5171,
      "lvm": 5172,
      "rrd": 5173,
      "tcl": 5174,
      "infin": 5175,
      "entire": 5176,
      "players": 5177,
      "msvcp": 5178,
      "clk": 5179,
      "accel": 5180,
      "smartcard": 5181,
      "article": 5182,
      "optimize": 5183,
      "milliseconds": 5184,
      "heartbeat": 5185,
      "suitable": 5186,
      "strategy": 5187,
      "autorid": 5188,
      "gchar": 5189,
      "kate": 5190,
      "lun": 5191,
      "ming": 5192,
      "mtime": 5193,
      "mute": 5194,
      "nul": 5195,
      "wcs": 5196,
      "ins": 5197,
      "onic": 5198,
      "orm": 5199,
      "isk": 5200,
      "stran": 5201,
      "dual": 5202,
      "tray": 5203,
      "memoryview": 5204,
      "08ix": 5205,
      "question": 5206,
      "smbconf": 5207,
      "clr": 5208,
      "filenames": 5209,
      "wsgi": 5210,
      "rejecting": 5211,
      "libzmq": 5212,
      "renc": 5213,
      "develo": 5214,
      "entropy": 5215,
      "lamb": 5216,
      "lauth": 5217,
      "libev": 5218,
      "rack": 5219,
      "recent": 5220,
      "headerxml": 5221,
      "2007": 5222,
      "wipe": 5223,
      "conditional": 5224,
      "edges": 5225,
      "replaced": 5226,
      "asynchron": 5227,
      "xmlucs": 5228,
      "mathematics": 5229,
      "7f": 5230,
      "c1": 5231,
      "gather": 5232,
      "algo": 5233,
      "nop": 5234,
      "forge": 5235,
      "parms": 5236,
      "glcolor": 5237,
      "sendto": 5238,
      "pki": 5239,
      "torsocks": 5240,
      "scores": 5241,
      "simulation": 5242,
      "sparql": 5243,
      "glprogramuniform": 5244,
      "manufacturer": 5245,
      "fread": 5246,
      "hau": 5247,
      "hdu": 5248,
      "wc": 5249,
      "inplace": 5250,
      "desi": 5251,
      "shar": 5252,
      "doma": 5253,
      "doctype": 5254,
      "sax": 5255,
      "csr": 5256,
      "released": 5257,
      "bounding": 5258,
      "fetching": 5259,
      "cleaning": 5260,
      "compatibility": 5261,
      "equiv": 5262,
      "gltexcoord": 5263,
      "retrieving": 5264,
      "ransform": 5265,
      "octets": 5266,
      "gethost": 5267,
      "b3": 5268,
      "elapsed": 5269,
      "xpa": 5270,
      "recomm": 5271,
      "ants": 5272,
      "unic": 5273,
      "convol": 5274,
      "libvisual": 5275,
      "cairo": 5276,
      "gluniform": 5277,
      "backward": 5278,
      "ubi": 5279,
      "webb": 5280,
      "registers": 5281,
      "broker": 5282,
      "watcher": 5283,
      "sprites": 5284,
      "alignedsegment": 5285,
      "subscriber": 5286,
      "comparison": 5287,
      "hours": 5288,
      "hierarchy": 5289,
      "postgresql": 5290,
      "collision": 5291,
      "c3": 5292,
      "gw": 5293,
      "uf": 5294,
      "reque": 5295,
      "id3d": 5296,
      "unmount": 5297,
      "tive": 5298,
      "cant": 5299,
      "bae": 5300,
      "weather": 5301,
      "attempts": 5302,
      "iii": 5303,
      "population": 5304,
      "accounts": 5305,
      "pango": 5306,
      "nickname": 5307,
      "tpm2b": 5308,
      "hits": 5309,
      "pps": 5310,
      "qemu": 5311,
      "rnd": 5312,
      "wel": 5313,
      "lim": 5314,
      "unload": 5315,
      "raise": 5316,
      "piv": 5317,
      "blockp": 5318,
      "freeze": 5319,
      "visor": 5320,
      "rando": 5321,
      "100s": 5322,
      "generatekey": 5323,
      "multis": 5324,
      "aiff": 5325,
      "migrate": 5326,
      "b1": 5327,
      "f1": 5328,
      "flex": 5329,
      "gg": 5330,
      "nid": 5331,
      "ploop": 5332,
      "storing": 5333,
      "trash": 5334,
      "opc": 5335,
      "sile": 5336,
      "ac3": 5337,
      "cale": 5338,
      "initialised": 5339,
      "deflate": 5340,
      "tracking": 5341,
      "pglogical": 5342,
      "polling": 5343,
      "holder": 5344,
      "previously": 5345,
      "p2p": 5346,
      "tracer": 5347,
      "cvt": 5348,
      "e2": 5349,
      "ja": 5350,
      "mn": 5351,
      "p1": 5352,
      "stab": 5353,
      "destructor": 5354,
      "cover": 5355,
      "cons": 5356,
      "exhau": 5357,
      "motif": 5358,
      "uptime": 5359,
      "ulate": 5360,
      "die": 5361,
      "luray": 5362,
      "olation": 5363,
      "remov": 5364,
      "iax2": 5365,
      "pgm": 5366,
      "flt": 5367,
      "certificates": 5368,
      "digestupdate": 5369,
      "deletion": 5370,
      "statistic": 5371,
      "advanced": 5372,
      "whole": 5373,
      "orientation": 5374,
      "instrument": 5375,
      "webbrowser": 5376,
      "9a": 5377,
      "b4": 5378,
      "blo": 5379,
      "dwar": 5380,
      "ostream": 5381,
      "xtr": 5382,
      "xterm": 5383,
      "inspect": 5384,
      "refs": 5385,
      "nod": 5386,
      "sug": 5387,
      "pyfuse": 5388,
      "subversion": 5389,
      "avro": 5390,
      "prototype": 5391,
      "reporting": 5392,
      "volumes": 5393,
      "fraction": 5394,
      "synth": 5395,
      "dependent": 5396,
      "human": 5397,
      "aliases": 5398,
      "pyfuse3": 5399,
      "655": 5400,
      "ked": 5401,
      "psk": 5402,
      "schannel": 5403,
      "uum": 5404,
      "inverse": 5405,
      "decor": 5406,
      "tho": 5407,
      "mow": 5408,
      "died": 5409,
      "versions": 5410,
      "assoc": 5411,
      "dnssec": 5412,
      "callbacks": 5413,
      "rency": 5414,
      "desired": 5415,
      "gse": 5416,
      "ifin": 5417,
      "ndef": 5418,
      "oz": 5419,
      "t2": 5420,
      "tone": 5421,
      "stasis": 5422,
      "det": 5423,
      "quanti": 5424,
      "sps": 5425,
      "patter": 5426,
      "minute": 5427,
      "localhost": 5428,
      "drbd": 5429,
      "sigterm": 5430,
      "guard": 5431,
      "barrier": 5432,
      "demuxer": 5433,
      "friend": 5434,
      "nanomsg": 5435,
      "vacuum": 5436,
      "recipient": 5437,
      "112": 5438,
      "dlt": 5439,
      "ffi": 5440,
      "jan": 5441,
      "nme": 5442,
      "oops": 5443,
      "xfr": 5444,
      "lickey": 5445,
      "sio": 5446,
      "prep": 5447,
      "buffering": 5448,
      "cpus": 5449,
      "signrecover": 5450,
      "ually": 5451,
      "operating": 5452,
      "ppd": 5453,
      "2006": 5454,
      "waitfor": 5455,
      "btf": 5456,
      "revcom": 5457,
      "integrity": 5458,
      "annotation": 5459,
      "mowgli": 5460,
      "ahead": 5461,
      "istr": 5462,
      "mri": 5463,
      "n2": 5464,
      "degre": 5465,
      "file2": 5466,
      "getmechanism": 5467,
      "dimm": 5468,
      "spu": 5469,
      "curr": 5470,
      "rmdir": 5471,
      "authenticated": 5472,
      "breakpoint": 5473,
      "restricted": 5474,
      "mpg123": 5475,
      "eject": 5476,
      "four": 5477,
      "gno": 5478,
      "ansi": 5479,
      "tok": 5480,
      "coef": 5481,
      "libgphoto2": 5482,
      "strong": 5483,
      "prepar": 5484,
      "varb": 5485,
      "101": 5486,
      "transformation": 5487,
      "tablet": 5488,
      "verifyrecover": 5489,
      "pfn": 5490,
      "normalize": 5491,
      "uint16": 5492,
      "perationstate": 5493,
      "degrees": 5494,
      "81": 5495,
      "8u": 5496,
      "8impl": 5497,
      "aster": 5498,
      "air": 5499,
      "cdata": 5500,
      "kar": 5501,
      "xp": 5502,
      "y1": 5503,
      "yi": 5504,
      "z0": 5505,
      "decompression": 5506,
      "abi": 5507,
      "abr": 5508,
      "filtering": 5509,
      "weak": 5510,
      "passwords": 5511,
      "verifyupdate": 5512,
      "ifications": 5513,
      "bluetooth": 5514,
      "approx": 5515,
      "c4": 5516,
      "dar": 5517,
      "dtp": 5518,
      "prag": 5519,
      "srt": 5520,
      "xk": 5521,
      "xbae": 5522,
      "yp": 5523,
      "zones": 5524,
      "oute": 5525,
      "ssid": 5526,
      "setuid": 5527,
      "interla": 5528,
      "subset": 5529,
      "syscall": 5530,
      "attrs": 5531,
      "norm": 5532,
      "derive": 5533,
      "bracket": 5534,
      "016llx": 5535,
      "hashtable": 5536,
      "domaing": 5537,
      "suggest": 5538,
      "pragma": 5539,
      "bpp": 5540,
      "dta": 5541,
      "qmail": 5542,
      "vz": 5543,
      "xz": 5544,
      "unmatched": 5545,
      "conmon": 5546,
      "ndctl": 5547,
      "parking": 5548,
      "pyclipper": 5549,
      "allby": 5550,
      "visitor": 5551,
      "2004": 5552,
      "asked": 5553,
      "inserting": 5554,
      "ensemble": 5555,
      "truncating": 5556,
      "distribute": 5557,
      "enumeration": 5558,
      "candidates": 5559,
      "adjac": 5560,
      "csc": 5561,
      "cif": 5562,
      "gmime": 5563,
      "qos": 5564,
      "uit": 5565,
      "vtable": 5566,
      "indirect": 5567,
      "seat": 5568,
      "erra": 5569,
      "props": 5570,
      "libminijail": 5571,
      "ments": 5572,
      "train": 5573,
      "dup2": 5574,
      "publickey": 5575,
      "navi": 5576,
      "unityed": 5577,
      "bk": 5578,
      "mnt": 5579,
      "vlc": 5580,
      "xpath": 5581,
      "erofs": 5582,
      "stg": 5583,
      "throt": 5584,
      "uncompressed": 5585,
      "virst": 5586,
      "typ": 5587,
      "flac": 5588,
      "week": 5589,
      "pgp": 5590,
      "iterations": 5591,
      "snac": 5592,
      "06d": 5593,
      "06ld": 5594,
      "384": 5595,
      "cancell": 5596,
      "produce": 5597,
      "combination": 5598,
      "sexp": 5599,
      "delimiter": 5600,
      "occured": 5601,
      "224": 5602,
      "dconf": 5603,
      "flux": 5604,
      "gld": 5605,
      "mci": 5606,
      "rms": 5607,
      "vb": 5608,
      "stretch": 5609,
      "netmask": 5610,
      "implicit": 5611,
      "fdopen": 5612,
      "replic": 5613,
      "allows": 5614,
      "expects": 5615,
      "individ": 5616,
      "clusters": 5617,
      "executed": 5618,
      "slash": 5619,
      "cdrskin": 5620,
      "higher": 5621,
      "dcesrv": 5622,
      "stanza": 5623,
      "lambda": 5624,
      "virstorage": 5625,
      "ama": 5626,
      "ez": 5627,
      "rk": 5628,
      "intra": 5629,
      "edu": 5630,
      "three": 5631,
      "ssize": 5632,
      "locations": 5633,
      "compose": 5634,
      "dext": 5635,
      "16g": 5636,
      "clamp": 5637,
      "groupdb": 5638,
      "mari": 5639,
      "termination": 5640,
      "14s": 5641,
      "viewer": 5642,
      "shortcut": 5643,
      "characterist": 5644,
      "btt": 5645,
      "nfs4": 5646,
      "getobject": 5647,
      "scrub": 5648,
      "firejail": 5649,
      "nwfilter": 5650,
      "telnet": 5651,
      "gnuplot": 5652,
      "density": 5653,
      "farm": 5654,
      "ym": 5655,
      "cept": 5656,
      "idl": 5657,
      "lax": 5658,
      "pawn": 5659,
      "rig": 5660,
      "lockfile": 5661,
      "10d": 5662,
      "finding": 5663,
      "phys": 5664,
      "flowcontrol": 5665,
      "normally": 5666,
      "40s": 5667,
      "overrid": 5668,
      "remotedispatchconnect": 5669,
      "2i": 5670,
      "409": 5671,
      "b8": 5672,
      "bzip2": 5673,
      "euid": 5674,
      "fh": 5675,
      "ham": 5676,
      "lfa": 5677,
      "ols": 5678,
      "tu": 5679,
      "tin": 5680,
      "ality": 5681,
      "faudio": 5682,
      "sierra": 5683,
      "amble": 5684,
      "qua": 5685,
      "netdev": 5686,
      "minus": 5687,
      "whites": 5688,
      "assume": 5689,
      "defer": 5690,
      "bling": 5691,
      "expun": 5692,
      "proje": 5693,
      "computer": 5694,
      "idirectplay8": 5695,
      "inquiry": 5696,
      "hci": 5697,
      "sout": 5698,
      "noop": 5699,
      "magn": 5700,
      "getname": 5701,
      "paint": 5702,
      "party": 5703,
      "validity": 5704,
      "ffmpeg": 5705,
      "miner": 5706,
      "subvol": 5707,
      "defaulting": 5708,
      "svd": 5709,
      "delayed": 5710,
      "adaptive": 5711,
      "ah02": 5712,
      "forwarding": 5713,
      "relayd": 5714,
      "rpmem": 5715,
      "digital": 5716,
      "unmarshaling": 5717,
      "cab": 5718,
      "hk": 5719,
      "tga": 5720,
      "invert": 5721,
      "unreachable": 5722,
      "maint": 5723,
      "macs": 5724,
      "datad": 5725,
      "rade": 5726,
      "ifest": 5727,
      "traj": 5728,
      "works": 5729,
      "apping": 5730,
      "debug3": 5731,
      "cddb": 5732,
      "irssi": 5733,
      "waitpid": 5734,
      "dc1394": 5735,
      "adapt": 5736,
      "pairp": 5737,
      "libbluray": 5738,
      "recursion": 5739,
      "framerate": 5740,
      "jection": 5741,
      "id3dx": 5742,
      "gnome": 5743,
      "300": 5744,
      "gun": 5745,
      "iled": 5746,
      "oauth": 5747,
      "tan": 5748,
      "inver": 5749,
      "redis": 5750,
      "notmuch": 5751,
      "proof": 5752,
      "canvas": 5753,
      "preload": 5754,
      "netsys": 5755,
      "av1": 5756,
      "11s": 5757,
      "dplus": 5758,
      "ibm": 5759,
      "estimat": 5760,
      "hexa": 5761,
      "pushing": 5762,
      "canceled": 5763,
      "icons": 5764,
      "restoring": 5765,
      "referenced": 5766,
      "wildcard": 5767,
      "unicast": 5768,
      "mariadb": 5769,
      "hat": 5770,
      "mcp": 5771,
      "ock": 5772,
      "ital": 5773,
      "toff": 5774,
      "cob": 5775,
      "notifications": 5776,
      "making": 5777,
      "law": 5778,
      "dock": 5779,
      "memcache": 5780,
      "lens": 5781,
      "codecs": 5782,
      "avoid": 5783,
      "corner": 5784,
      "mixed": 5785,
      "didl": 5786,
      "likely": 5787,
      "nfs3": 5788,
      "hangup": 5789,
      "house": 5790,
      "silent": 5791,
      "966": 5792,
      "c8": 5793,
      "hc": 5794,
      "han": 5795,
      "pmemo": 5796,
      "tg": 5797,
      "arith": 5798,
      "prom": 5799,
      "vio": 5800,
      "bypass": 5801,
      "keysym": 5802,
      "useful": 5803,
      "userdb": 5804,
      "nullptr": 5805,
      "104": 5806,
      "contexts": 5807,
      "cdma": 5808,
      "sigint": 5809,
      "ipv6calc": 5810,
      "btn": 5811,
      "instances": 5812,
      "combine": 5813,
      "interpreter": 5814,
      "expansion": 5815,
      "future": 5816,
      "xmlucsis": 5817,
      "hf": 5818,
      "kvi": 5819,
      "por": 5820,
      "vbo": 5821,
      "dem": 5822,
      "advise": 5823,
      "trouble": 5824,
      "shr": 5825,
      "lint": 5826,
      "fftw": 5827,
      "maxval": 5828,
      "removal": 5829,
      "trim": 5830,
      "queries": 5831,
      "sequential": 5832,
      "18s": 5833,
      "keywords": 5834,
      "tune": 5835,
      "unpacked": 5836,
      "restrict": 5837,
      "copied": 5838,
      "possib": 5839,
      "agi": 5840,
      "btree": 5841,
      "cls": 5842,
      "gith": 5843,
      "water": 5844,
      "setr": 5845,
      "forbid": 5846,
      "aby": 5847,
      "getcurrent": 5848,
      "readonly": 5849,
      "acls": 5850,
      "pathy": 5851,
      "manifest": 5852,
      "funcs": 5853,
      "transparent": 5854,
      "sni": 5855,
      "verifying": 5856,
      "inodes": 5857,
      "vsb": 5858,
      "xmlx": 5859,
      "flickcurl": 5860,
      "shelper": 5861,
      "mristep": 5862,
      "individual": 5863,
      "6g": 5864,
      "bing": 5865,
      "ecp": 5866,
      "fan": 5867,
      "grep": 5868,
      "gstreamer": 5869,
      "lut": 5870,
      "adverti": 5871,
      "ising": 5872,
      "tip": 5873,
      "ording": 5874,
      "strec": 5875,
      "nsd": 5876,
      "coder": 5877,
      "splitter": 5878,
      "prepared": 5879,
      "websocket": 5880,
      "triggered": 5881,
      "xmlseckey": 5882,
      "walk": 5883,
      "telepathy": 5884,
      "others": 5885,
      "tcti": 5886,
      "modification": 5887,
      "welcome": 5888,
      "pmemobj": 5889,
      "github": 5890,
      "422": 5891,
      "6e": 5892,
      "ftruncate": 5893,
      "rer": 5894,
      "s1": 5895,
      "vcf": 5896,
      "ston": 5897,
      "fasta": 5898,
      "uncompress": 5899,
      "consu": 5900,
      "exon": 5901,
      "zebra": 5902,
      "emr": 5903,
      "weap": 5904,
      "handles": 5905,
      "longitude": 5906,
      "srfi": 5907,
      "merged": 5908,
      "2008": 5909,
      "namatch": 5910,
      "mountpoint": 5911,
      "qualifier": 5912,
      "solution": 5913,
      "holding": 5914,
      "webrtc": 5915,
      "banner": 5916,
      "gvirconfig": 5917,
      "subtitles": 5918,
      "wireless": 5919,
      "deliver": 5920,
      "kalmanfilter": 5921,
      "square": 5922,
      "baud": 5923,
      "dg": 5924,
      "ei": 5925,
      "lli": 5926,
      "mcast": 5927,
      "otp": 5928,
      "demo": 5929,
      "deactivate": 5930,
      "expat": 5931,
      "int128": 5932,
      "sourceforge": 5933,
      "cade": 5934,
      "stren": 5935,
      "pict": 5936,
      "debugsymbols": 5937,
      "huff": 5938,
      "accepting": 5939,
      "torrent": 5940,
      "gsslib": 5941,
      "conditions": 5942,
      "overrun": 5943,
      "weighted": 5944,
      "suspen": 5945,
      "instructions": 5946,
      "haps": 5947,
      "mart": 5948,
      "psi": 5949,
      "restarting": 5950,
      "cher": 5951,
      "corece": 5952,
      "coverage": 5953,
      "getid": 5954,
      "getsockopt": 5955,
      "readwrite": 5956,
      "scm": 5957,
      "rail": 5958,
      "boss": 5959,
      "timezone": 5960,
      "dispose": 5961,
      "spy": 5962,
      "manent": 5963,
      "poolset": 5964,
      "flv": 5965,
      "00000": 5966,
      "superlu": 5967,
      "administr": 5968,
      "drain": 5969,
      "representation": 5970,
      "sgix": 5971,
      "xmlsectransform": 5972,
      "whitespace": 5973,
      "gsslibstub": 5974,
      "corecext": 5975,
      "dsp": 5976,
      "gdb": 5977,
      "ik": 5978,
      "lum": 5979,
      "npa": 5980,
      "r8": 5981,
      "rlimit": 5982,
      "vob": 5983,
      "outer": 5984,
      "unct": 5985,
      "fileinfo": 5986,
      "verified": 5987,
      "simil": 5988,
      "vif": 5989,
      "typed": 5990,
      "libmemcached": 5991,
      "urlauth": 5992,
      "hest": 5993,
      "miss": 5994,
      "callable": 5995,
      "indexing": 5996,
      "md2": 5997,
      "mdtraj": 5998,
      "srgb": 5999,
      "loopback": 6000,
      "grey": 6001,
      "owned": 6002,
      "screenshot": 6003,
      "sorting": 6004,
      "rollback": 6005,
      "dwp": 6006,
      "ucs4": 6007,
      "2021": 6008,
      "vertices": 6009,
      "framed": 6010,
      "facility": 6011,
      "evaluate": 6012,
      "gaussian": 6013,
      "dwarf": 6014,
      "namatchblock": 6015,
      "strength": 6016,
      "116": 6017,
      "3x": 6018,
      "blu": 6019,
      "gal": 6020,
      "vbi": 6021,
      "wp": 6022,
      "xid": 6023,
      "rewind": 6024,
      "ros": 6025,
      "provision": 6026,
      "resync": 6027,
      "permanent": 6028,
      "spin": 6029,
      "tempita": 6030,
      "iax": 6031,
      "databases": 6032,
      "pubkey": 6033,
      "9999": 6034,
      "bias": 6035,
      "followed": 6036,
      "underflow": 6037,
      "compilation": 6038,
      "computed": 6039,
      "techno": 6040,
      "basis": 6041,
      "constraints": 6042,
      "releasing": 6043,
      "xmlsecopenssl": 6044,
      "similar": 6045,
      "132": 6046,
      "bre": 6047,
      "dont": 6048,
      "h265": 6049,
      "kde": 6050,
      "mst": 6051,
      "nz": 6052,
      "xps": 6053,
      "exc": 6054,
      "forget": 6055,
      "dimage": 6056,
      "pow": 6057,
      "resamp": 6058,
      "addns": 6059,
      "perhaps": 6060,
      "discar": 6061,
      "spnego": 6062,
      "msr": 6063,
      "backing": 6064,
      "sv5": 6065,
      "pppoe": 6066,
      "looks": 6067,
      "flop": 6068,
      "24s": 6069,
      "cftime": 6070,
      "ibwarn": 6071,
      "iiii": 6072,
      "rfb": 6073,
      "advance": 6074,
      "leaved": 6075,
      "initiator": 6076,
      "ssth": 6077,
      "qqml": 6078,
      "xbaematrix": 6079,
      "4ld": 6080,
      "az": 6081,
      "dcd": 6082,
      "kg": 6083,
      "lru": 6084,
      "msec": 6085,
      "cov": 6086,
      "unterminated": 6087,
      "abel": 6088,
      "verb": 6089,
      "getklass": 6090,
      "veto": 6091,
      "ager": 6092,
      "systems": 6093,
      "sigma": 6094,
      "acceptable": 6095,
      "documentation": 6096,
      "bands": 6097,
      "flatpak": 6098,
      "stuff": 6099,
      "ontology": 6100,
      "nexth": 6101,
      "patterns": 6102,
      "asterisk": 6103,
      "hexadecimal": 6104,
      "3e": 6105,
      "bps": 6106,
      "cinit": 6107,
      "eu": 6108,
      "fused": 6109,
      "hn": 6110,
      "ome": 6111,
      "osc": 6112,
      "qc": 6113,
      "s3": 6114,
      "reli": 6115,
      "mesa": 6116,
      "necess": 6117,
      "gettext": 6118,
      "dims": 6119,
      "quar": 6120,
      "taken": 6121,
      "took": 6122,
      "directly": 6123,
      "mdanalysis": 6124,
      "cleared": 6125,
      "respond": 6126,
      "ensregistry": 6127,
      "2009": 6128,
      "geocode": 6129,
      "cumem": 6130,
      "pressure": 6131,
      "penal": 6132,
      "recoverable": 6133,
      "annotator": 6134,
      "sensitivity": 6135,
      "monikerimpl": 6136,
      "pulse": 6137,
      "discarded": 6138,
      "2ld": 6139,
      "8lu": 6140,
      "bib": 6141,
      "ior": 6142,
      "ious": 6143,
      "nfo": 6144,
      "envelo": 6145,
      "encies": 6146,
      "expl": 6147,
      "pager": 6148,
      "bump": 6149,
      "serve": 6150,
      "compact": 6151,
      "mlm": 6152,
      "filled": 6153,
      "modul": 6154,
      "flows": 6155,
      "guide": 6156,
      "multiplier": 6157,
      "bignum": 6158,
      "detailed": 6159,
      "gtk": 6160,
      "numa": 6161,
      "telemetry": 6162,
      "boosting": 6163,
      "formula": 6164,
      "inflate": 6165,
      "recommended": 6166,
      "domainget": 6167,
      "fur": 6168,
      "jul": 6169,
      "jdwp": 6170,
      "mr": 6171,
      "nk": 6172,
      "tbl": 6173,
      "uled": 6174,
      "sepol": 6175,
      "alone": 6176,
      "design": 6177,
      "itcl": 6178,
      "toge": 6179,
      "ado": 6180,
      "sspi": 6181,
      "motor": 6182,
      "readline": 6183,
      "shu": 6184,
      "typedef": 6185,
      "solicit": 6186,
      "interleaved": 6187,
      "prevent": 6188,
      "actor": 6189,
      "workers": 6190,
      "counts": 6191,
      "initialise": 6192,
      "nonblock": 6193,
      "shows": 6194,
      "ownership": 6195,
      "leading": 6196,
      "frontend": 6197,
      "cascade": 6198,
      "describe": 6199,
      "requestrec": 6200,
      "exhausted": 6201,
      "4k": 6202,
      "care": 6203,
      "scre": 6204,
      "u32": 6205,
      "yang": 6206,
      "undef": 6207,
      "ledge": 6208,
      "luma": 6209,
      "chewing": 6210,
      "bay": 6211,
      "filtered": 6212,
      "defines": 6213,
      "selecting": 6214,
      "183": 6215,
      "tasks": 6216,
      "latitude": 6217,
      "vsl": 6218,
      "timestamps": 6219,
      "repeated": 6220,
      "steal": 6221,
      "almanfilter": 6222,
      "scheduling": 6223,
      "dcmdata": 6224,
      "highest": 6225,
      "burst": 6226,
      "together": 6227,
      "dither": 6228,
      "pmt": 6229,
      "vts": 6230,
      "inhibit": 6231,
      "als": 6232,
      "fied": 6233,
      "unspecified": 6234,
      "contra": 6235,
      "offs": 6236,
      "getattr": 6237,
      "tes": 6238,
      "passth": 6239,
      "pcsc": 6240,
      "lyri": 6241,
      "race": 6242,
      "disconnecting": 6243,
      "ifp": 6244,
      "newer": 6245,
      "transi": 6246,
      "warp": 6247,
      "avp": 6248,
      "linkage": 6249,
      "textures": 6250,
      "2017": 6251,
      "displayed": 6252,
      "toplevel": 6253,
      "foreach": 6254,
      "17s": 6255,
      "rdma": 6256,
      "splitting": 6257,
      "slope": 6258,
      "ethernet": 6259,
      "ezmlm": 6260,
      "9d": 6261,
      "a8": 6262,
      "gop": 6263,
      "vn": 6264,
      "tour": 6265,
      "ouser": 6266,
      "adf": 6267,
      "unloading": 6268,
      "mas": 6269,
      "mmc": 6270,
      "say": 6271,
      "wined": 6272,
      "recycle": 6273,
      "lengths": 6274,
      "priate": 6275,
      "tslib": 6276,
      "svcs": 6277,
      "variate": 6278,
      "shouldn": 6279,
      "explo": 6280,
      "pointers": 6281,
      "multiplex": 6282,
      "statements": 6283,
      "central": 6284,
      "sixel": 6285,
      "leader": 6286,
      "aggregate": 6287,
      "subscribers": 6288,
      "9660": 6289,
      "suspended": 6290,
      "necessary": 6291,
      "2lf": 6292,
      "3ld": 6293,
      "9b": 6294,
      "kp": 6295,
      "rex": 6296,
      "redistribute": 6297,
      "staging": 6298,
      "setline": 6299,
      "linfo": 6300,
      "interpo": 6301,
      "bag": 6302,
      "001": 6303,
      "buffersize": 6304,
      "netsnmp": 6305,
      "checker": 6306,
      "debug2": 6307,
      "drum": 6308,
      "180": 6309,
      "increasing": 6310,
      "rather": 6311,
      "dependency": 6312,
      "appropriate": 6313,
      "expanded": 6314,
      "adaptorfetchallby": 6315,
      "hav": 6316,
      "s0": 6317,
      "t0": 6318,
      "uim": 6319,
      "rebuild": 6320,
      "uninitialized": 6321,
      "utput": 6322,
      "moh": 6323,
      "prolog": 6324,
      "upstream": 6325,
      "tio": 6326,
      "ntsvcs": 6327,
      "esys": 6328,
      "layers": 6329,
      "preamble": 6330,
      "rcur": 6331,
      "formathandler": 6332,
      "recor": 6333,
      "mdc": 6334,
      "debugger": 6335,
      "devent": 6336,
      "cery": 6337,
      "capable": 6338,
      "pagesize": 6339,
      "corresponding": 6340,
      "univariate": 6341,
      "ptions": 6342,
      "hashes": 6343,
      "rights": 6344,
      "snprintf": 6345,
      "sniff": 6346,
      "191": 6347,
      "effects": 6348,
      "appending": 6349,
      "prevlsn": 6350,
      "sanity": 6351,
      "drag": 6352,
      "conflicts": 6353,
      "manually": 6354,
      "smoother": 6355,
      "trailer": 6356,
      "tracing": 6357,
      "samplerate": 6358,
      "reiserfs": 6359,
      "abcdefghijklmnopqrstuvwxyzabcdefghijklmnopqrstuvwxyz0123456789": 6360,
      "possibly": 6361,
      "4i": 6362,
      "840": 6363,
      "bounce": 6364,
      "cq": 6365,
      "cis": 6366,
      "ccache": 6367,
      "gerror": 6368,
      "ian": 6369,
      "nsec": 6370,
      "u8": 6371,
      "x0": 6372,
      "xr": 6373,
      "tobj": 6374,
      "lig": 6375,
      "unary": 6376,
      "mpl": 6377,
      "readlink": 6378,
      "strlen": 6379,
      "ntsc": 6380,
      "hep": 6381,
      "ica": 6382,
      "spline": 6383,
      "avs": 6384,
      "160": 6385,
      "ubx": 6386,
      "crca": 6387,
      "integers": 6388,
      "blit": 6389,
      "networks": 6390,
      "sorcery": 6391,
      "nvram": 6392,
      "comes": 6393,
      "conflicting": 6394,
      "initiate": 6395,
      "retrieved": 6396,
      "fuzzy": 6397,
      "substitution": 6398,
      "parenthe": 6399,
      "preparing": 6400,
      "cular": 6401,
      "vga": 6402,
      "xref": 6403,
      "reloading": 6404,
      "itself": 6405,
      "getxattr": 6406,
      "getattributevalue": 6407,
      "umount": 6408,
      "division": 6409,
      "lud": 6410,
      "resum": 6411,
      "icu": 6412,
      "acm": 6413,
      "colon": 6414,
      "spell": 6415,
      "codepage": 6416,
      "gstaudio": 6417,
      "foundation": 6418,
      "tribut": 6419,
      "converts": 6420,
      "sha512": 6421,
      "resolv": 6422,
      "sigaction": 6423,
      "03u": 6424,
      "06o": 6425,
      "mappings": 6426,
      "eeprom": 6427,
      "umbler": 6428,
      "according": 6429,
      "circle": 6430,
      "experi": 6431,
      "infinite": 6432,
      "rcurveto": 6433,
      "csi": 6434,
      "evi": 6435,
      "slu": 6436,
      "tumbler": 6437,
      "enu": 6438,
      "enss": 6439,
      "oud": 6440,
      "ssss": 6441,
      "pef": 6442,
      "lash": 6443,
      "paste": 6444,
      "hole": 6445,
      "cia": 6446,
      "passive": 6447,
      "nonblocking": 6448,
      "scripts": 6449,
      "msgs": 6450,
      "blt": 6451,
      "talk": 6452,
      "including": 6453,
      "dddd": 6454,
      "regions": 6455,
      "originate": 6456,
      "median": 6457,
      "idirectsound": 6458,
      "diffuse": 6459,
      "examples": 6460,
      "lzma": 6461,
      "rgba": 6462,
      "photos": 6463,
      "ifindex": 6464,
      "coefficient": 6465,
      "penalty": 6466,
      "ines": 6467,
      "relax": 6468,
      "orer": 6469,
      "ges": 6470,
      "adr": 6471,
      "thin": 6472,
      "unchanged": 6473,
      "pai": 6474,
      "wrapped": 6475,
      "performed": 6476,
      "locator": 6477,
      "splice": 6478,
      "stress": 6479,
      "traverse": 6480,
      "mized": 6481,
      "ooooo": 6482,
      "stride": 6483,
      "marks": 6484,
      "ctxt": 6485,
      "dbusmenu": 6486,
      "360": 6487,
      "nuauth": 6488,
      "wireup": 6489,
      "synchronization": 6490,
      "raptor": 6491,
      "reuseaddr": 6492,
      "diagnostic": 6493,
      "forbidden": 6494,
      "contrast": 6495,
      "404": 6496,
      "das": 6497,
      "i2": 6498,
      "went": 6499,
      "xcb": 6500,
      "redirection": 6501,
      "retransmission": 6502,
      "deinterlace": 6503,
      "conform": 6504,
      "maker": 6505,
      "failing": 6506,
      "belong": 6507,
      "synon": 6508,
      "tpf": 6509,
      "speech": 6510,
      "refle": 6511,
      "117": 6512,
      "structures": 6513,
      "confbridge": 6514,
      "latest": 6515,
      "deno": 6516,
      "unlocked": 6517,
      "algorithms": 6518,
      "weights": 6519,
      "calculation": 6520,
      "assertexception": 6521,
      "2020": 6522,
      "buckets": 6523,
      "gettypeinfocount": 6524,
      "envelope": 6525,
      "interpolate": 6526,
      "bh": 6527,
      "blink": 6528,
      "dry": 6529,
      "jack": 6530,
      "lrm": 6531,
      "sand": 6532,
      "wat": 6533,
      "cot": 6534,
      "sigh": 6535,
      "pax": 6536,
      "apdu": 6537,
      "shi": 6538,
      "0xff": 6539,
      "interleave": 6540,
      "acs": 6541,
      "fini": 6542,
      "says": 6543,
      "workspace": 6544,
      "licen": 6545,
      "imlib": 6546,
      "sockname": 6547,
      "topen": 6548,
      "anything": 6549,
      "fresh": 6550,
      "latin": 6551,
      "pbm": 6552,
      "replacing": 6553,
      "residual": 6554,
      "contig": 6555,
      "emulator": 6556,
      "defaul": 6557,
      "accuracy": 6558,
      "radeon": 6559,
      "xmlxpath": 6560,
      "600": 6561,
      "c7": 6562,
      "nle": 6563,
      "pst": 6564,
      "pls": 6565,
      "s16": 6566,
      "yn": 6567,
      "atm": 6568,
      "stoo": 6569,
      "tox": 6570,
      "exml": 6571,
      "utime": 6572,
      "getdevice": 6573,
      "lain": 6574,
      "dif": 6575,
      "tics": 6576,
      "pcd": 6577,
      "loglevel": 6578,
      "numberof": 6579,
      "minimal": 6580,
      "manip": 6581,
      "mainloop": 6582,
      "rtas": 6583,
      "clauses": 6584,
      "runs": 6585,
      "2012": 6586,
      "instanti": 6587,
      "msglog": 6588,
      "147": 6589,
      "identification": 6590,
      "estimate": 6591,
      "follows": 6592,
      "killing": 6593,
      "early": 6594,
      "whitelist": 6595,
      "interpolation": 6596,
      "combined": 6597,
      "sstp": 6598,
      "gexiv2metadata": 6599,
      "diagnostics": 6600,
      "caching": 6601,
      "piece": 6602,
      "throttle": 6603,
      "2a": 6604,
      "aled": 6605,
      "gro": 6606,
      "gcc": 6607,
      "kaf": 6608,
      "kib": 6609,
      "nsp": 6610,
      "insecure": 6611,
      "atio": 6612,
      "seal": 6613,
      "decryption": 6614,
      "death": 6615,
      "expo": 6616,
      "mpty": 6617,
      "luks": 6618,
      "keycode": 6619,
      "fromfile": 6620,
      "interp": 6621,
      "argc": 6622,
      "hotp": 6623,
      "userspace": 6624,
      "bitstream": 6625,
      "rtl": 6626,
      "structed": 6627,
      "1998": 6628,
      "switches": 6629,
      "expires": 6630,
      "trusts": 6631,
      "scheduled": 6632,
      "overrides": 6633,
      "computing": 6634,
      "id3v2": 6635,
      "criteria": 6636,
      "65535": 6637,
      "ims": 6638,
      "kdf": 6639,
      "mup": 6640,
      "vdo": 6641,
      "rewrite": 6642,
      "selinux": 6643,
      "exam": 6644,
      "excess": 6645,
      "ldp": 6646,
      "getimage": 6647,
      "uevent": 6648,
      "amar": 6649,
      "portable": 6650,
      "genre": 6651,
      "preprocessor": 6652,
      "bufferimpl": 6653,
      "mink": 6654,
      "modulo": 6655,
      "spam": 6656,
      "regf": 6657,
      "archite": 6658,
      "smbc": 6659,
      "clnt": 6660,
      "otherwise": 6661,
      "membership": 6662,
      "skew": 6663,
      "hwnd": 6664,
      "restriction": 6665,
      "glvertexattri": 6666,
      "floppy": 6667,
      "explorer": 6668,
      "05d": 6669,
      "a4": 6670,
      "f0": 6671,
      "i2d": 6672,
      "nie": 6673,
      "ron": 6674,
      "ration": 6675,
      "s32": 6676,
      "vw": 6677,
      "wiz": 6678,
      "xa": 6679,
      "resiz": 6680,
      "depot": 6681,
      "nep": 6682,
      "tris": 6683,
      "poco": 6684,
      "strcmp": 6685,
      "backtrace": 6686,
      "indexes": 6687,
      "rts": 6688,
      "epmapper": 6689,
      "hack": 6690,
      "pgsql": 6691,
      "lobby": 6692,
      "pads": 6693,
      "agentx": 6694,
      "syncop": 6695,
      "ffffff": 6696,
      "reduction": 6697,
      "brace": 6698,
      "distributed": 6699,
      "atoms": 6700,
      "aneous": 6701,
      "spoof": 6702,
      "tiny": 6703,
      "5th": 6704,
      "822": 6705,
      "fence": 6706,
      "jq": 6707,
      "uk": 6708,
      "xdelta": 6709,
      "ats": 6710,
      "tot": 6711,
      "ckr": 6712,
      "filesize": 6713,
      "getp": 6714,
      "ndar": 6715,
      "ily": 6716,
      "bytecode": 6717,
      "cccc": 6718,
      "alent": 6719,
      "schemas": 6720,
      "tunl": 6721,
      "vp8": 6722,
      "vp9": 6723,
      "planes": 6724,
      "isisd": 6725,
      "25519": 6726,
      "inet6": 6727,
      "invoked": 6728,
      "microsoft": 6729,
      "inconsistency": 6730,
      "improper": 6731,
      "recorded": 6732,
      "2k": 6733,
      "d1": 6734,
      "fseek": 6735,
      "gpo": 6736,
      "gobject": 6737,
      "hull": 6738,
      "naxis": 6739,
      "slab": 6740,
      "vg": 6741,
      "vation": 6742,
      "wad": 6743,
      "wap": 6744,
      "revert": 6745,
      "lip": 6746,
      "coeff": 6747,
      "opac": 6748,
      "lazy": 6749,
      "ticks": 6750,
      "strand": 6751,
      "servi": 6752,
      "quark": 6753,
      "ipaddr": 6754,
      "fsinfo": 6755,
      "outputs": 6756,
      "subclass": 6757,
      "04hx": 6758,
      "shown": 6759,
      "monot": 6760,
      "vectors": 6761,
      "understand": 6762,
      "mgcp": 6763,
      "translated": 6764,
      "sane": 6765,
      "slotevent": 6766,
      "applications": 6767,
      "uftrace": 6768,
      "paired": 6769,
      "sighup": 6770,
      "3b": 6771,
      "9g": 6772,
      "ares": 6773,
      "bble": 6774,
      "cmy": 6775,
      "dark": 6776,
      "kan": 6777,
      "mbox": 6778,
      "repr": 6779,
      "deinit": 6780,
      "todo": 6781,
      "uname": 6782,
      "unregistered": 6783,
      "unsafe": 6784,
      "trouser": 6785,
      "lag": 6786,
      "umul": 6787,
      "libsignon": 6788,
      "datafile": 6789,
      "rain": 6790,
      "clipr": 6791,
      "clireadwrite": 6792,
      "wins": 6793,
      "debugclient": 6794,
      "msgpack": 6795,
      "ensor": 6796,
      "ifiers": 6797,
      "dense": 6798,
      "bigger": 6799,
      "kbps": 6800,
      "temporaries": 6801,
      "periodic": 6802,
      "privileged": 6803,
      "comparing": 6804,
      "recursively": 6805,
      "residue": 6806,
      "250s": 6807,
      "ellipse": 6808,
      "interlaced": 6809,
      "trousers": 6810,
      "2fs": 6811,
      "3a": 6812,
      "726": 6813,
      "dna": 6814,
      "eti": 6815,
      "fset": 6816,
      "gmt": 6817,
      "hiv": 6818,
      "kf": 6819,
      "oob": 6820,
      "rar": 6821,
      "itpack": 6822,
      "ions": 6823,
      "third": 6824,
      "pet": 6825,
      "mpz": 6826,
      "prov": 6827,
      "riv": 6828,
      "iling": 6829,
      "series": 6830,
      "prefs": 6831,
      "caf": 6832,
      "binutils": 6833,
      "fixup": 6834,
      "species": 6835,
      "rtt": 6836,
      "ators": 6837,
      "nonexistent": 6838,
      "displayname": 6839,
      "150": 6840,
      "programs": 6841,
      "dfitpack": 6842,
      "activating": 6843,
      "detached": 6844,
      "modifiers": 6845,
      "cmds": 6846,
      "turbo": 6847,
      "timers": 6848,
      "bgcolor": 6849,
      "calendar": 6850,
      "nexthop": 6851,
      "further": 6852,
      "transient": 6853,
      "kafka": 6854,
      "5g": 6855,
      "avide": 6856,
      "rn": 6857,
      "s48": 6858,
      "tgt": 6859,
      "atar": 6860,
      "stdio": 6861,
      "ano": 6862,
      "nom": 6863,
      "una": 6864,
      "mpro": 6865,
      "lug": 6866,
      "beep": 6867,
      "grav": 6868,
      "compound": 6869,
      "transpose": 6870,
      "printable": 6871,
      "25s": 6872,
      "dumpfile": 6873,
      "views": 6874,
      "flowop": 6875,
      "fcgid": 6876,
      "failures": 6877,
      "flushed": 6878,
      "keeping": 6879,
      "extracting": 6880,
      "assemble": 6881,
      "constructing": 6882,
      "migration": 6883,
      "libzbc": 6884,
      "criterion": 6885,
      "degree": 6886,
      "multisample": 6887,
      "consume": 6888,
      "opacity": 6889,
      "2e": 6890,
      "dgm": 6891,
      "gmenu": 6892,
      "k0": 6893,
      "km": 6894,
      "lw": 6895,
      "mss": 6896,
      "sar": 6897,
      "sdata": 6898,
      "van": 6899,
      "relocation": 6900,
      "reconfigure": 6901,
      "ora": 6902,
      "lover": 6903,
      "lav": 6904,
      "asprintf": 6905,
      "resident": 6906,
      "pretty": 6907,
      "spection": 6908,
      "inputs": 6909,
      "iolog": 6910,
      "nodelay": 6911,
      "weird": 6912,
      "arraydatatype": 6913,
      "disks": 6914,
      "identical": 6915,
      "identified": 6916,
      "marking": 6917,
      "coords": 6918,
      "documents": 6919,
      "vt16": 6920,
      "mkfs": 6921,
      "scotch": 6922,
      "placement": 6923,
      "continuation": 6924,
      "0123456789abcdef": 6925,
      "transmitter": 6926,
      "derived": 6927,
      "dundi": 6928,
      "advertise": 6929,
      "1a": 6930,
      "403": 6931,
      "cldap": 6932,
      "eh": 6933,
      "fwrite": 6934,
      "mur": 6935,
      "omit": 6936,
      "pip": 6937,
      "qd": 6938,
      "xdebug": 6939,
      "redo": 6940,
      "renamed": 6941,
      "enforce": 6942,
      "coff": 6943,
      "cker": 6944,
      "mobi": 6945,
      "divide": 6946,
      "writev": 6947,
      "appable": 6948,
      "psr": 6949,
      "2014": 6950,
      "omg": 6951,
      "recordset": 6952,
      "13s": 6953,
      "axes": 6954,
      "virsh": 6955,
      "joint": 6956,
      "leak": 6957,
      "better": 6958,
      "particle": 6959,
      "meaning": 6960,
      "vaapi": 6961,
      "sleeping": 6962,
      "basename": 6963,
      "immediately": 6964,
      "alphab": 6965,
      "wined3d": 6966,
      "avidemux": 6967,
      "gsm": 6968,
      "gsave": 6969,
      "hfs": 6970,
      "m3u": 6971,
      "rpki": 6972,
      "vbr": 6973,
      "xdr": 6974,
      "y0": 6975,
      "yv": 6976,
      "ying": 6977,
      "restored": 6978,
      "ctime": 6979,
      "ader": 6980,
      "idd": 6981,
      "faidx": 6982,
      "getsession": 6983,
      "upon": 6984,
      "aper": 6985,
      "ambi": 6986,
      "ffle": 6987,
      "0x0": 6988,
      "held": 6989,
      "icm": 6990,
      "timecode": 6991,
      "aren": 6992,
      "smk": 6993,
      "maxi": 6994,
      "subtree": 6995,
      "subvolume": 6996,
      "frame3": 6997,
      "2010": 6998,
      "libsres": 6999,
      "graphs": 7000,
      "sigusr": 7001,
      "recvmsg": 7002,
      "2222": 7003,
      "jsonrpc": 7004,
      "corruption": 7005,
      "namespaces": 7006,
      "performing": 7007,
      "integral": 7008,
      "wallet": 7009,
      "strobe": 7010,
      "libcw": 7011,
      "libgcrypt": 7012,
      "substitute": 7013,
      "forwarded": 7014,
      "profiler": 7015,
      "convolution": 7016,
      "pivot": 7017,
      "cliprdr": 7018,
      "hivex": 7019,
      "1u": 7020,
      "c5": 7021,
      "crtc": 7022,
      "dhe": 7023,
      "dmi": 7024,
      "ifile": 7025,
      "pval": 7026,
      "sbc": 7027,
      "wol": 7028,
      "mes": 7029,
      "cops": 7030,
      "maged": 7031,
      "illa": 7032,
      "starttls": 7033,
      "substring": 7034,
      "avdtp": 7035,
      "agree": 7036,
      "atedata": 7037,
      "mda": 7038,
      "115": 7039,
      "spacing": 7040,
      "certs": 7041,
      "smbpasswd": 7042,
      "classname": 7043,
      "specifying": 7044,
      "50s": 7045,
      "thresh": 7046,
      "rencode": 7047,
      "contacts": 7048,
      "sqlite3": 7049,
      "treat": 7050,
      "trees": 7051,
      "launcher": 7052,
      "potential": 7053,
      "nsswitch": 7054,
      "datasource": 7055,
      "thandler": 7056,
      "asynchronous": 7057,
      "9f": 7058,
      "bdf": 7059,
      "dtr": 7060,
      "g4": 7061,
      "i0": 7062,
      "ji": 7063,
      "jis": 7064,
      "jvm": 7065,
      "l3": 7066,
      "psy": 7067,
      "plex": 7068,
      "rmoveto": 7069,
      "vext": 7070,
      "xhtml": 7071,
      "reallocate": 7072,
      "adpcm": 7073,
      "thri": 7074,
      "unorm": 7075,
      "tract": 7076,
      "motd": 7077,
      "valu": 7078,
      "sibling": 7079,
      "lags": 7080,
      "libch": 7081,
      "lump": 7082,
      "poison": 7083,
      "bea": 7084,
      "classic": 7085,
      "swtpm": 7086,
      "corrected": 7087,
      "multipath": 7088,
      "sockcm": 7089,
      "autoar": 7090,
      "programmer": 7091,
      "240": 7092,
      "includes": 7093,
      "mknod": 7094,
      "acknow": 7095,
      "xslt": 7096,
      "affect": 7097,
      "frozenlist": 7098,
      "predicate": 7099,
      "arithme": 7100,
      "gvirconfigdomain": 7101,
      "lyrics": 7102,
      "imlib2": 7103,
      "blast": 7104,
      "cms": 7105,
      "his": 7106,
      "rng": 7107,
      "incr": 7108,
      "reorder": 7109,
      "thr": 7110,
      "ldif": 7111,
      "ofx": 7112,
      "ural": 7113,
      "strerror": 7114,
      "ender": 7115,
      "esis": 7116,
      "createobject": 7117,
      "rypt": 7118,
      "164": 7119,
      "variance": 7120,
      "irp": 7121,
      "accessing": 7122,
      "dlls": 7123,
      "documented": 7124,
      "backends": 7125,
      "synthe": 7126,
      "installing": 7127,
      "optimal": 7128,
      "adjustment": 7129,
      "indicates": 7130,
      "scape": 7131,
      "nattype": 7132,
      "auxili": 7133,
      "measurement": 7134,
      "footer": 7135,
      "preferences": 7136,
      "english": 7137,
      "xfrd": 7138,
      "rigctl": 7139,
      "cname": 7140,
      "cstring": 7141,
      "dur": 7142,
      "gpr": 7143,
      "gcry": 7144,
      "halt": 7145,
      "lh": 7146,
      "mcount": 7147,
      "spc": 7148,
      "wnd": 7149,
      "renew": 7150,
      "enstran": 7151,
      "mex": 7152,
      "throw": 7153,
      "constructed": 7154,
      "getsockname": 7155,
      "tear": 7156,
      "outline": 7157,
      "zel": 7158,
      "compli": 7159,
      "taking": 7160,
      "collate": 7161,
      "coded": 7162,
      "oll": 7163,
      "submission": 7164,
      "ago": 7165,
      "10u": 7166,
      "rtx": 7167,
      "frame2": 7168,
      "cylin": 7169,
      "xyzz": 7170,
      "bases": 7171,
      "surround": 7172,
      "daemonize": 7173,
      "storagepool": 7174,
      "sofnames": 7175,
      "gave": 7176,
      "drawing": 7177,
      "indilib": 7178,
      "ui64": 7179,
      "quitto": 7180,
      "progressive": 7181,
      "crc32": 7182,
      "255s": 7183,
      "incx": 7184,
      "icmpv6": 7185,
      "mosquitto": 7186,
      "imapc": 7187,
      "synchronous": 7188,
      "analyze": 7189,
      "operands": 7190,
      "adjacency": 7191,
      "expunge": 7192,
      "getidsofnames": 7193,
      "experiment": 7194,
      "mobile": 7195,
      "1b": 7196,
      "4a": 7197,
      "aid": 7198,
      "bmc": 7199,
      "dnamatchblock": 7200,
      "eax": 7201,
      "gatt": 7202,
      "hup": 7203,
      "jl": 7204,
      "ncurses": 7205,
      "rint": 7206,
      "tbt": 7207,
      "renaming": 7208,
      "atures": 7209,
      "editing": 7210,
      "ounc": 7211,
      "chg": 7212,
      "gettoken": 7213,
      "tem": 7214,
      "lindex": 7215,
      "resample": 7216,
      "keyring": 7217,
      "saver": 7218,
      "168": 7219,
      "sv15": 7220,
      "coredump": 7221,
      "powered": 7222,
      "duplicated": 7223,
      "444": 7224,
      "ipmiconsole": 7225,
      "blacklist": 7226,
      "fragments": 7227,
      "glyphs": 7228,
      "ddrawex": 7229,
      "udfread": 7230,
      "deregister": 7231,
      "projection": 7232,
      "architecture": 7233,
      "arithmetic": 7234,
      "8000": 7235,
      "ausb": 7236,
      "ess": 7237,
      "fsm": 7238,
      "gone": 7239,
      "gxps": 7240,
      "jtag": 7241,
      "nls": 7242,
      "nmos": 7243,
      "pmos": 7244,
      "qf": 7245,
      "uss": 7246,
      "inq": 7247,
      "fio": 7248,
      "unless": 7249,
      "filelist": 7250,
      "propa": 7251,
      "typing": 7252,
      "openal": 7253,
      "hell": 7254,
      "ips": 7255,
      "intercept": 7256,
      "perms": 7257,
      "02ld": 7258,
      "homer": 7259,
      "smi": 7260,
      "offer": 7261,
      "2011": 7262,
      "2019": 7263,
      "caption": 7264,
      "printed": 7265,
      "addrs": 7266,
      "rotator": 7267,
      "accounting": 7268,
      "backgroundcopy": 7269,
      "continuous": 7270,
      "subscribed": 7271,
      "negotiated": 7272,
      "acquired": 7273,
      "scratch": 7274,
      "skinny": 7275,
      "dovecot": 7276,
      "copies": 7277,
      "proxies": 7278,
      "yield": 7279,
      "dtadev": 7280,
      "datadir": 7281,
      "drumstick": 7282,
      "monotonic": 7283,
      "xyzzy": 7284,
      "220": 7285,
      "ade": 7286,
      "catch": 7287,
      "dcs": 7288,
      "f7": 7289,
      "gent": 7290,
      "hq": 7291,
      "mcrypt": 7292,
      "redir": 7293,
      "atr": 7294,
      "getdata": 7295,
      "paged": 7296,
      "posed": 7297,
      "aubio": 7298,
      "fog": 7299,
      "iptv": 7300,
      "disposition": 7301,
      "prepend": 7302,
      "evt": 7303,
      "muc": 7304,
      "prng": 7305,
      "workgroup": 7306,
      "linking": 7307,
      "assis": 7308,
      "clp": 7309,
      "cram": 7310,
      "programming": 7311,
      "137": 7312,
      "makes": 7313,
      "pkts": 7314,
      "mutually": 7315,
      "folks": 7316,
      "vkd3d": 7317,
      "cutoff": 7318,
      "completer": 7319,
      "macros": 7320,
      "hdhomer": 7321,
      "particular": 7322,
      "cycles": 7323,
      "libgpo": 7324,
      "vocation": 7325,
      "developer": 7326,
      "clsid": 7327,
      "adobe": 7328,
      "auxiliary": 7329,
      "hdhomerun": 7330,
      "4g": 7331,
      "402": 7332,
      "5a": 7333,
      "800": 7334,
      "bir": 7335,
      "f32": 7336,
      "h3": 7337,
      "hun": 7338,
      "junk": 7339,
      "kon": 7340,
      "kiss": 7341,
      "plist": 7342,
      "rpm": 7343,
      "uio": 7344,
      "zmq": 7345,
      "cts": 7346,
      "ctab": 7347,
      "exa": 7348,
      "peers": 7349,
      "trappable": 7350,
      "utable": 7351,
      "ameter": 7352,
      "moother": 7353,
      "directed": 7354,
      "libads": 7355,
      "ordin": 7356,
      "htm": 7357,
      "spl": 7358,
      "playhouse": 7359,
      "formatting": 7360,
      "glcd": 7361,
      "authz": 7362,
      "aged": 7363,
      "refcnt": 7364,
      "rt4": 7365,
      "phan": 7366,
      "virconnect": 7367,
      "tracepoint": 7368,
      "enumber": 7369,
      "seekable": 7370,
      "ationsmoother": 7371,
      "stylesheet": 7372,
      "digestfinal": 7373,
      "chains": 7374,
      "ttf": 7375,
      "ahi": 7376,
      "custo": 7377,
      "extractor": 7378,
      "expiry": 7379,
      "compiling": 7380,
      "triggers": 7381,
      "vpn": 7382,
      "d3dx10": 7383,
      "supplement": 7384,
      "ballo": 7385,
      "simulationsmoother": 7386,
      "contigu": 7387,
      "uade": 7388,
      "scatter": 7389,
      "equivalent": 7390,
      "synonym": 7391,
      "3lu": 7392,
      "4e": 7393,
      "6u": 7394,
      "gation": 7395,
      "hlink": 7396,
      "iw": 7397,
      "jp": 7398,
      "mw": 7399,
      "nio": 7400,
      "u16": 7401,
      "vsm": 7402,
      "refine": 7403,
      "tol": 7404,
      "advert": 7405,
      "lopen": 7406,
      "chassis": 7407,
      "entities": 7408,
      "unlimited": 7409,
      "getdc": 7410,
      "mosa": 7411,
      "riff": 7412,
      "mms": 7413,
      "wner": 7414,
      "rpcrt4": 7415,
      "rcp": 7416,
      "inputfile": 7417,
      "backlight": 7418,
      "spare": 7419,
      "04o": 7420,
      "damage": 7421,
      "clump": 7422,
      "cblas": 7423,
      "multiply": 7424,
      "securitycontext": 7425,
      "iso8859": 7426,
      "folders": 7427,
      "tcsetattr": 7428,
      "probability": 7429,
      "sticky": 7430,
      "whois": 7431,
      "excluded": 7432,
      "grabber": 7433,
      "smpte": 7434,
      "mpool": 7435,
      "ensslice": 7436,
      "experimental": 7437,
      "balloon": 7438,
      "b0": 7439,
      "bss": 7440,
      "dsk": 7441,
      "iio": 7442,
      "jer": 7443,
      "pbc": 7444,
      "terr": 7445,
      "vcom": 7446,
      "invent": 7447,
      "injection": 7448,
      "remap": 7449,
      "regenerate": 7450,
      "arbit": 7451,
      "nomin": 7452,
      "idn2": 7453,
      "unist": 7454,
      "mpris": 7455,
      "nest": 7456,
      "readers": 7457,
      "beh": 7458,
      "validator": 7459,
      "intensity": 7460,
      "listproperty": 7461,
      "icy": 7462,
      "interest": 7463,
      "gency": 7464,
      "compens": 7465,
      "changer": 7466,
      "bytevector": 7467,
      "outputfile": 7468,
      "subs": 7469,
      "substr": 7470,
      "prs": 7471,
      "missed": 7472,
      "106": 7473,
      "125": 7474,
      "transpa": 7475,
      "syste": 7476,
      "svm": 7477,
      "assig": 7478,
      "eregister": 7479,
      "dnsquery": 7480,
      "asking": 7481,
      "recvfrom": 7482,
      "menuitem": 7483,
      "bootchart": 7484,
      "utf16": 7485,
      "tension": 7486,
      "duplicates": 7487,
      "installation": 7488,
      "simtech": 7489,
      "turned": 7490,
      "libcfaidx": 7491,
      "provides": 7492,
      "brick": 7493,
      "delegate": 7494,
      "xrdcrypto": 7495,
      "gethostbyname": 7496,
      "gravity": 7497,
      "5numpy": 7498,
      "dscp": 7499,
      "jb": 7500,
      "jmp": 7501,
      "ladd": 7502,
      "nth": 7503,
      "oa": 7504,
      "ox": 7505,
      "p3": 7506,
      "sop": 7507,
      "lix": 7508,
      "cope": 7509,
      "sso": 7510,
      "undocumented": 7511,
      "ldown": 7512,
      "aband": 7513,
      "ofcondition": 7514,
      "dirent": 7515,
      "libsvn": 7516,
      "tiles": 7517,
      "shp": 7518,
      "keyb": 7519,
      "creates": 7520,
      "commandline": 7521,
      "ivext": 7522,
      "107": 7523,
      "111": 7524,
      "httpd": 7525,
      "repl": 7526,
      "resultset": 7527,
      "autodetect": 7528,
      "mounts": 7529,
      "explain": 7530,
      "iness": 7531,
      "delk": 7532,
      "sentence": 7533,
      "mutation": 7534,
      "3333": 7535,
      "applying": 7536,
      "calculating": 7537,
      "nnnn": 7538,
      "udiskslinux": 7539,
      "lzo": 7540,
      "hypervisor": 7541,
      "dmabuf": 7542,
      "seafile": 7543,
      "quake": 7544,
      "qqmllistproperty": 7545,
      "208": 7546,
      "234": 7547,
      "7ld": 7548,
      "bbox": 7549,
      "city": 7550,
      "cds": 7551,
      "easy": 7552,
      "hers": 7553,
      "kw": 7554,
      "ljava": 7555,
      "omitted": 7556,
      "wand": 7557,
      "zsock": 7558,
      "relo": 7559,
      "seman": 7560,
      "arr": 7561,
      "lose": 7562,
      "isns": 7563,
      "chos": 7564,
      "concer": 7565,
      "mav": 7566,
      "atell": 7567,
      "ldapa": 7568,
      "asp": 7569,
      "tie": 7570,
      "tide": 7571,
      "ffnetdev": 7572,
      "addon": 7573,
      "pcx": 7574,
      "opensession": 7575,
      "heme": 7576,
      "chema": 7577,
      "discre": 7578,
      "clirap": 7579,
      "createinstance": 7580,
      "spea": 7581,
      "emer": 7582,
      "referr": 7583,
      "counted": 7584,
      "correlation": 7585,
      "pids": 7586,
      "kern": 7587,
      "ftt": 7588,
      "goert": 7589,
      "queues": 7590,
      "frees": 7591,
      "grestore": 7592,
      "gamepad": 7593,
      "seqnum": 7594,
      "digestinit": 7595,
      "h5s": 7596,
      "metafile": 7597,
      "differs": 7598,
      "decryptupdate": 7599,
      "gcm": 7600,
      "aterandom": 7601,
      "yyyy": 7602,
      "pbkdf": 7603,
      "symlinks": 7604,
      "chromo": 7605,
      "circuit": 7606,
      "issued": 7607,
      "geom2d": 7608,
      "cwel": 7609,
      "getslotlist": 7610,
      "kvirc": 7611,
      "shuffle": 7612,
      "resizing": 7613,
      "libchtslib": 7614,
      "contiguous": 7615,
      "transparency": 7616,
      "ldapapi": 7617,
      "goertzel": 7618,
      "4b": 7619,
      "cil": 7620,
      "iop": 7621,
      "mcl": 7622,
      "obu": 7623,
      "ossl": 7624,
      "sable": 7625,
      "vsc": 7626,
      "onom": 7627,
      "atime": 7628,
      "sts": 7629,
      "meg": 7630,
      "mel": 7631,
      "ctd": 7632,
      "adin": 7633,
      "unaligned": 7634,
      "filebuf": 7635,
      "opend": 7636,
      "ulong": 7637,
      "urface": 7638,
      "intf": 7639,
      "pcc": 7640,
      "lying": 7641,
      "wnam": 7642,
      "bern": 7643,
      "tpmt": 7644,
      "avahi": 7645,
      "prun": 7646,
      "166": 7647,
      "psf": 7648,
      "capt": 7649,
      "overwriting": 7650,
      "visibility": 7651,
      "chunked": 7652,
      "ruleset": 7653,
      "rtpbin": 7654,
      "780": 7655,
      "clipping": 7656,
      "planar": 7657,
      "576": 7658,
      "enumerator": 7659,
      "optimization": 7660,
      "gregor": 7661,
      "blur": 7662,
      "nspname": 7663,
      "chosen": 7664,
      "1lf": 7665,
      "5ld": 7666,
      "9e": 7667,
      "ape": 7668,
      "ave": 7669,
      "cvs": 7670,
      "dword": 7671,
      "gan": 7672,
      "gmail": 7673,
      "ict": 7674,
      "pure": 7675,
      "vlog": 7676,
      "ximage": 7677,
      "xel": 7678,
      "ories": 7679,
      "stl": 7680,
      "mega": 7681,
      "setfont": 7682,
      "vals": 7683,
      "andle": 7684,
      "urls": 7685,
      "keyblock": 7686,
      "disallowed": 7687,
      "compo": 7688,
      "htt": 7689,
      "rcpt": 7690,
      "pile": 7691,
      "configuring": 7692,
      "glraster": 7693,
      "sendfile": 7694,
      "ags": 7695,
      "wordlist": 7696,
      "ecb": 7697,
      "generaterandom": 7698,
      "hashmap": 7699,
      "contained": 7700,
      "privatedata": 7701,
      "sha3": 7702,
      "randr": 7703,
      "shading": 7704,
      "encryptinit": 7705,
      "h5o": 7706,
      "bootstr": 7707,
      "reduced": 7708,
      "circular": 7709,
      "thandle": 7710,
      "several": 7711,
      "overriding": 7712,
      "deferred": 7713,
      "shrink": 7714,
      "cisco": 7715,
      "mosaic": 7716,
      "433": 7717,
      "d0": 7718,
      "eid": 7719,
      "herr": 7720,
      "mdata": 7721,
      "wpa": 7722,
      "wip": 7723,
      "wmb": 7724,
      "inval": 7725,
      "oname": 7726,
      "lev": 7727,
      "orb": 7728,
      "stime": 7729,
      "tout": 7730,
      "tostring": 7731,
      "cone": 7732,
      "offi": 7733,
      "usion": 7734,
      "silon": 7735,
      "violation": 7736,
      "sh264": 7737,
      "sharp": 7738,
      "urandom": 7739,
      "door": 7740,
      "intext": 7741,
      "int16": 7742,
      "grl": 7743,
      "ipher": 7744,
      "spp": 7745,
      "prediction": 7746,
      "rpcsvc": 7747,
      "info2": 7748,
      "pyfftw": 7749,
      "gii": 7750,
      "userid": 7751,
      "wards": 7752,
      "sendmsg": 7753,
      "prim": 7754,
      "tempo": 7755,
      "entrylk": 7756,
      "window2": 7757,
      "shoot": 7758,
      "symtab": 7759,
      "253": 7760,
      "floor": 7761,
      "stripe": 7762,
      "enables": 7763,
      "gesture": 7764,
      "standalone": 7765,
      "5555": 7766,
      "xxxxxxxx": 7767,
      "drives": 7768,
      "magickset": 7769,
      "colspan": 7770,
      "saturation": 7771,
      "transmitted": 7772,
      "clusion": 7773,
      "everything": 7774,
      "estimated": 7775,
      "reliable": 7776,
      "adaptorfetchallbystatement": 7777,
      "xdelta3": 7778,
      "ambient": 7779,
      "1e": 7780,
      "awt": 7781,
      "burn": 7782,
      "dam": 7783,
      "fq": 7784,
      "fwd": 7785,
      "iec": 7786,
      "pil": 7787,
      "pptp": 7788,
      "umask": 7789,
      "zing": 7790,
      "inct": 7791,
      "leap": 7792,
      "construction": 7793,
      "notifier": 7794,
      "filesys": 7795,
      "getcaps": 7796,
      "veti": 7797,
      "libuna": 7798,
      "polar": 7799,
      "grant": 7800,
      "stateblock": 7801,
      "iov": 7802,
      "126": 7803,
      "redraw": 7804,
      "119": 7805,
      "certain": 7806,
      "windowpos": 7807,
      "closeall": 7808,
      "downstream": 7809,
      "pppd": 7810,
      "modsecurity": 7811,
      "constants": 7812,
      "forecast": 7813,
      "ferite": 7814,
      "posting": 7815,
      "encryptfinal": 7816,
      "surfaces": 7817,
      "descr": 7818,
      "decryptinit": 7819,
      "decryptfinal": 7820,
      "rence": 7821,
      "extracted": 7822,
      "pkcs7": 7823,
      "quitting": 7824,
      "vpd": 7825,
      "produced": 7826,
      "rwlock": 7827,
      "sanit": 7828,
      "sfv": 7829,
      "distances": 7830,
      "appearance": 7831,
      "assumed": 7832,
      "dhcpv6": 7833,
      "atile": 7834,
      "xmlsecopenss": 7835,
      "getslotinfo": 7836,
      "generatekeypair": 7837,
      "technology": 7838,
      "ensregistryget": 7839,
      "hotplug": 7840,
      "abandon": 7841,
      "glrasterpos": 7842,
      "5x": 7843,
      "f3": 7844,
      "ico": 7845,
      "kbytes": 7846,
      "kdc": 7847,
      "nmem": 7848,
      "pit": 7849,
      "pvp": 7850,
      "v5": 7851,
      "wwid": 7852,
      "yo": 7853,
      "yel": 7854,
      "innov": 7855,
      "rext": 7856,
      "orphan": 7857,
      "chy": 7858,
      "unsolicit": 7859,
      "mpcd": 7860,
      "setenv": 7861,
      "getnext": 7862,
      "tifiles": 7863,
      "name2": 7864,
      "ables": 7865,
      "park": 7866,
      "keyframe": 7867,
      "iper": 7868,
      "intermedi": 7869,
      "inittoken": 7870,
      "faces": 7871,
      "avatar": 7872,
      "initializer": 7873,
      "lanes": 7874,
      "dumps": 7875,
      "dnsbl": 7876,
      "svcencoder": 7877,
      "loops": 7878,
      "verifyfinal": 7879,
      "begins": 7880,
      "libraries": 7881,
      "geometric": 7882,
      "htmlwindow2": 7883,
      "toolbar": 7884,
      "numerical": 7885,
      "earlier": 7886,
      "recurse": 7887,
      "personal": 7888,
      "polyglot": 7889,
      "aaaaaaaa": 7890,
      "introspection": 7891,
      "hdf5": 7892,
      "cwelsh264": 7893,
      "unsolicited": 7894,
      "cwelsh264svcencoder": 7895,
      "1s": 7896,
      "235": 7897,
      "6ld": 7898,
      "cxx": 7899,
      "cename": 7900,
      "dop": 7901,
      "flu": 7902,
      "gdbm": 7903,
      "ifo": 7904,
      "xfile": 7905,
      "xlat": 7906,
      "edx": 7907,
      "think": 7908,
      "chld": 7909,
      "cold": 7910,
      "concurrent": 7911,
      "exattr": 7912,
      "nee": 7913,
      "setgid": 7914,
      "ums": 7915,
      "dima": 7916,
      "roman": 7917,
      "invalidate": 7918,
      "ifname": 7919,
      "smf": 7920,
      "stringstream": 7921,
      "avt": 7922,
      "singular": 7923,
      "micha": 7924,
      "103": 7925,
      "signfinal": 7926,
      "callsign": 7927,
      "transf": 7928,
      "xmltext": 7929,
      "svs": 7930,
      "querying": 7931,
      "2013": 7932,
      "closesession": 7933,
      "univers": 7934,
      "dpb": 7935,
      "operon": 7936,
      "showing": 7937,
      "mixing": 7938,
      "lexer": 7939,
      "shutter": 7940,
      "iehtmlwindow2": 7941,
      "camer": 7942,
      "authorize": 7943,
      "volatile": 7944,
      "iso9660": 7945,
      "operators": 7946,
      "scardapi": 7947,
      "hooks": 7948,
      "optionally": 7949,
      "balanced": 7950,
      "juli": 7951,
      "tkt": 7952,
      "endif": 7953,
      "rfc822": 7954,
      "wants": 7955,
      "danger": 7956,
      "rcvbuf": 7957,
      "ah019": 7958,
      "paragraph": 7959,
      "concaten": 7960,
      "removexattr": 7961,
      "derivekey": 7962,
      "pictures": 7963,
      "getsessioninfo": 7964,
      "beacon": 7965,
      "gettokeninfo": 7966,
      "speaker": 7967,
      "chromosome": 7968,
      "vlog95": 7969,
      "pvpgn": 7970,
      "innovations": 7971,
      "4m": 7972,
      "6b": 7973,
      "7e": 7974,
      "cmos": 7975,
      "cgreenlet": 7976,
      "jcat": 7977,
      "tsp": 7978,
      "wish": 7979,
      "redefined": 7980,
      "thy": 7981,
      "isplay": 7982,
      "roid": 7983,
      "favor": 7984,
      "contour": 7985,
      "setvalue": 7986,
      "bell": 7987,
      "bubble": 7988,
      "0x8": 7989,
      "mmio": 7990,
      "datalen": 7991,
      "keydata": 7992,
      "initpin": 7993,
      "spath": 7994,
      "statfs": 7995,
      "statvfs": 7996,
      "gnl": 7997,
      "badly": 7998,
      "offx": 7999,
      "signinit": 8000,
      "signupdate": 8001,
      "signatures": 8002,
      "tmpfs": 8003,
      "thermal": 8004,
      "scanned": 8005,
      "verifyinit": 8006,
      "bbbb": 8007,
      "normalized": 8008,
      "descend": 8009,
      "tuning": 8010,
      "filesystems": 8011,
      "seedrandom": 8012,
      "des3": 8013,
      "integration": 8014,
      "arkstep": 8015,
      "imaging": 8016,
      "bond": 8017,
      "f2fs": 8018,
      "0000000000000000": 8019,
      "enode": 8020,
      "letters": 8021,
      "bzr": 8022,
      "caches": 8023,
      "elimin": 8024,
      "waitforslotevent": 8025,
      "magnitude": 8026,
      "resampler": 8027,
      "unistim": 8028,
      "2b": 8029,
      "bdplus": 8030,
      "dss": 8031,
      "f8": 8032,
      "kn": 8033,
      "ku": 8034,
      "lpc": 8035,
      "oli": 8036,
      "pnp": 8037,
      "tort": 8038,
      "vnv": 8039,
      "atsvc": 8040,
      "stap": 8041,
      "sext": 8042,
      "ention": 8043,
      "setattributevalue": 8044,
      "getstate": 8045,
      "getpeer": 8046,
      "sible": 8047,
      "readv": 8048,
      "strf": 8049,
      "solar": 8050,
      "raft": 8051,
      "bomb": 8052,
      "ifndef": 8053,
      "saw": 8054,
      "confid": 8055,
      "minator": 8056,
      "lowest": 8057,
      "subkey": 8058,
      "glwindowpos": 8059,
      "10ld": 8060,
      "transcoder": 8061,
      "implies": 8062,
      "psis": 8063,
      "passing": 8064,
      "xmlsys": 8065,
      "epsilon": 8066,
      "defining": 8067,
      "msgid": 8068,
      "wasn": 8069,
      "libsma": 8070,
      "syncing": 8071,
      "ax25": 8072,
      "rates": 8073,
      "mounting": 8074,
      "exporter": 8075,
      "wrapkey": 8076,
      "fcn": 8077,
      "finishing": 8078,
      "serializer": 8079,
      "intervals": 8080,
      "ciphers": 8081,
      "480": 8082,
      "structured": 8083,
      "hibern": 8084,
      "temporal": 8085,
      "ftpy2": 8086,
      "webp": 8087,
      "routes": 8088,
      "udisks2": 8089,
      "plaintext": 8090,
      "actually": 8091,
      "relationship": 8092,
      "purpose": 8093,
      "gettimeof": 8094,
      "molecu": 8095,
      "getmechanismlist": 8096,
      "reroute": 8097,
      "thriftpy2": 8098,
      "closeallsessions": 8099,
      "xmlsysd": 8100,
      "6x": 8101,
      "dms": 8102,
      "dcrypt": 8103,
      "eol": 8104,
      "eio": 8105,
      "fz": 8106,
      "gmp": 8107,
      "gla": 8108,
      "hue": 8109,
      "ptrace": 8110,
      "rus": 8111,
      "satell": 8112,
      "tcy": 8113,
      "xon": 8114,
      "gem": 8115,
      "adt": 8116,
      "isol": 8117,
      "idity": 8118,
      "lds": 8119,
      "setpin": 8120,
      "failover": 8121,
      "getitem": 8122,
      "getdesc": 8123,
      "upsd": 8124,
      "dia": 8125,
      "amr": 8126,
      "typelib": 8127,
      "escap": 8128,
      "ipt": 8129,
      "gix": 8130,
      "glbind": 8131,
      "prune": 8132,
      "appdata": 8133,
      "transformed": 8134,
      "elt": 8135,
      "nodedevice": 8136,
      "2015": 8137,
      "smbsock": 8138,
      "64vector": 8139,
      "rowset": 8140,
      "zeros": 8141,
      "pkinit": 8142,
      "fcgi": 8143,
      "pubsub": 8144,
      "nack": 8145,
      "ibpkey": 8146,
      "nvme": 8147,
      "386": 8148,
      "underline": 8149,
      "controlling": 8150,
      "dispatcher": 8151,
      "indicated": 8152,
      "throughput": 8153,
      "gpsd": 8154,
      "grayscale": 8155,
      "brainz": 8156,
      "decrease": 8157,
      "getmechanisminfo": 8158,
      "pfnscard": 8159,
      "getobjectsize": 8160,
      "exposure": 8161,
      "behind": 8162,
      "libsmacker": 8163,
      "002": 8164,
      "214": 8165,
      "430": 8166,
      "dlopen": 8167,
      "ier": 8168,
      "mfd": 8169,
      "munmap": 8170,
      "ower": 8171,
      "pong": 8172,
      "rplay": 8173,
      "sport": 8174,
      "orc": 8175,
      "atsc": 8176,
      "alta": 8177,
      "along": 8178,
      "unrecoverable": 8179,
      "laser": 8180,
      "veloc": 8181,
      "libexec": 8182,
      "libspectrum": 8183,
      "lined": 8184,
      "bailing": 8185,
      "suid": 8186,
      "lsr": 8187,
      "colord": 8188,
      "hood": 8189,
      "cases": 8190,
      "bins": 8191,
      "fixing": 8192,
      "signencryptupdate": 8193,
      "prise": 8194,
      "dirname": 8195,
      "fdw": 8196,
      "helveti": 8197,
      "fixed16": 8198,
      "copyobject": 8199,
      "3270": 8200,
      "overall": 8201,
      "various": 8202,
      "socklog": 8203,
      "pgapi": 8204,
      "mtab": 8205,
      "srp": 8206,
      "dumped": 8207,
      "199": 8208,
      "destroyobject": 8209,
      "realpath": 8210,
      "insertion": 8211,
      "authenticator": 8212,
      "older": 8213,
      "digestencryptupdate": 8214,
      "importing": 8215,
      "gftp": 8216,
      "365": 8217,
      "wavpack": 8218,
      "decryptdigestupdate": 8219,
      "decryptverifyupdate": 8220,
      "pane": 8221,
      "1284": 8222,
      "updater": 8223,
      "mediap": 8224,
      "gammu": 8225,
      "packages": 8226,
      "immutable": 8227,
      "absolutely": 8228,
      "builder3": 8229,
      "setoperationstate": 8230,
      "initialising": 8231,
      "rdpgfx": 8232,
      "findobjectsinit": 8233,
      "gstrtp": 8234,
      "a0183": 8235,
      "unwrapkey": 8236,
      "boundingbox": 8237,
      "nmea0183": 8238,
      "signrecoverinit": 8239,
      "verifyrecoverinit": 8240,
      "training": 8241,
      "bootstrap": 8242,
      "dimager": 8243,
      "232": 8244,
      "dme": 8245,
      "drc": 8246,
      "dkalmanfilter": 8247,
      "fstab": 8248,
      "jk": 8249,
      "kh": 8250,
      "nas": 8251,
      "oot": 8252,
      "ysm": 8253,
      "zv": 8254,
      "zdr": 8255,
      "rear": 8256,
      "itu": 8257,
      "mpc": 8258,
      "upd": 8259,
      "tioc": 8260,
      "rist": 8261,
      "ript": 8262,
      "bee": 8263,
      "pcp": 8264,
      "scf": 8265,
      "permit": 8266,
      "baset": 8267,
      "mdns": 8268,
      "frame1": 8269,
      "swit": 8270,
      "changelog": 8271,
      "modprobe": 8272,
      "packeti": 8273,
      "mailer": 8274,
      "merging": 8275,
      "masks": 8276,
      "mountable": 8277,
      "txnp": 8278,
      "relations": 8279,
      "standing": 8280,
      "digestkey": 8281,
      "vcdimager": 8282,
      "threaded": 8283,
      "joining": 8284,
      "xmcr": 8285,
      "voicemail": 8286,
      "infinity": 8287,
      "categories": 8288,
      "appeared": 8289,
      "xinelib": 8290,
      "consumed": 8291,
      "drawn": 8292,
      "getoperationstate": 8293,
      "gridfs": 8294,
      "touchpad": 8295,
      "sqrt": 8296,
      "bonus": 8297,
      "pulldown": 8298,
      "findobjectsfinal": 8299,
      "ellip": 8300,
      "qmmp": 8301,
      "xkl": 8302,
      "ladder": 8303,
      "215": 8304,
      "320": 8305,
      "720": 8306,
      "cable": 8307,
      "ever": 8308,
      "g8": 8309,
      "gboolean": 8310,
      "lst": 8311,
      "qs": 8312,
      "wit": 8313,
      "inp": 8314,
      "fileset": 8315,
      "mp4": 8316,
      "getconf": 8317,
      "sirf": 8318,
      "lapse": 8319,
      "apo": 8320,
      "addition": 8321,
      "matlab": 8322,
      "soa": 8323,
      "acro": 8324,
      "chant": 8325,
      "areas": 8326,
      "jectory": 8327,
      "cial": 8328,
      "bytestream": 8329,
      "backlog": 8330,
      "frm": 8331,
      "workaround": 8332,
      "trimm": 8333,
      "109": 8334,
      "weep": 8335,
      "systemctl": 8336,
      "fixed2": 8337,
      "overla": 8338,
      "sysinfo": 8339,
      "recorder": 8340,
      "domainevent": 8341,
      "combo": 8342,
      "autostart": 8343,
      "1997": 8344,
      "130": 8345,
      "ideal": 8346,
      "sides": 8347,
      "effectcompiler": 8348,
      "01x": 8349,
      "598": 8350,
      "xmcreate": 8351,
      "turtle": 8352,
      "carrier": 8353,
      "remotedispatchdomainget": 8354,
      "associate": 8355,
      "octal": 8356,
      "bullet": 8357,
      "lossless": 8358,
      "hyperdoc": 8359,
      "internetexplorer": 8360,
      "crossover": 8361,
      "audiop": 8362,
      "gathering": 8363,
      "characteristics": 8364,
      "sigusr1": 8365,
      "pbkdf2": 8366,
      "pileup": 8367,
      "yellow": 8368,
      "torture": 8369,
      "helvetica": 8370,
      "233": 8371,
      "7lu": 8372,
      "bic": 8373,
      "bcp": 8374,
      "cvo": 8375,
      "crack": 8376,
      "esh": 8377,
      "emacs": 8378,
      "gis": 8379,
      "ucx": 8380,
      "vcc": 8381,
      "zin": 8382,
      "zon": 8383,
      "insane": 8384,
      "enqueue": 8385,
      "anager": 8386,
      "ards": 8387,
      "gegl": 8388,
      "geglo": 8389,
      "lots": 8390,
      "comb": 8391,
      "lapack": 8392,
      "nameserver": 8393,
      "kee": 8394,
      "igsc": 8395,
      "02f": 8396,
      "varying": 8397,
      "maxsize": 8398,
      "alling": 8399,
      "subscript": 8400,
      "prer": 8401,
      "dsr": 8402,
      "finder": 8403,
      "west": 8404,
      "2018": 8405,
      "fixed1": 8406,
      "localtime": 8407,
      "damaged": 8408,
      "talking": 8409,
      "segmentation": 8410,
      "usbip": 8411,
      "moves": 8412,
      "monitors": 8413,
      "263": 8414,
      "mimeh": 8415,
      "retrieval": 8416,
      "drawable": 8417,
      "gcg": 8418,
      "checksums": 8419,
      "tfm": 8420,
      "tlb": 8421,
      "placed": 8422,
      "sfx": 8423,
      "sndbuf": 8424,
      "chrome": 8425,
      "delim": 8426,
      "a2dp": 8427,
      "bfrop": 8428,
      "trusteddomain": 8429,
      "fvwm": 8430,
      "aggregator": 8431,
      "vrml": 8432,
      "rndv": 8433,
      "removable": 8434,
      "characteristic": 8435,
      "having": 8436,
      "emergency": 8437,
      "wmbiff": 8438,
      "office": 8439,
      "intermediate": 8440,
      "456": 8441,
      "aq": 8442,
      "csync": 8443,
      "dou": 8444,
      "f4": 8445,
      "f5": 8446,
      "hsp": 8447,
      "ners": 8448,
      "sds": 8449,
      "uz": 8450,
      "uation": 8451,
      "vdp": 8452,
      "wbc": 8453,
      "xft": 8454,
      "retain": 8455,
      "fir": 8456,
      "unbind": 8457,
      "unmapped": 8458,
      "filetype": 8459,
      "getsize": 8460,
      "uler": 8461,
      "shmem": 8462,
      "ette": 8463,
      "foot": 8464,
      "scand": 8465,
      "predict": 8466,
      "memview": 8467,
      "currency": 8468,
      "maximal": 8469,
      "warm": 8470,
      "iostream": 8471,
      "heads": 8472,
      "bitmask": 8473,
      "transcode": 8474,
      "2048": 8475,
      "fixed8": 8476,
      "overview": 8477,
      "downloading": 8478,
      "moreutils": 8479,
      "176": 8480,
      "greet": 8481,
      "populate": 8482,
      "slices": 8483,
      "xattrs": 8484,
      "recovered": 8485,
      "xdnd": 8486,
      "consistency": 8487,
      "replaygain": 8488,
      "morpho": 8489,
      "ajax": 8490,
      "figure": 8491,
      "cumemcpy": 8492,
      "reflection": 8493,
      "cmyk": 8494,
      "jerasure": 8495,
      "03f": 8496,
      "308": 8497,
      "a3": 8498,
      "cstr": 8499,
      "hls": 8500,
      "i7": 8501,
      "lv2": 8502,
      "mls": 8503,
      "oma": 8504,
      "pss": 8505,
      "punct": 8506,
      "uchar": 8507,
      "xi": 8508,
      "xmit": 8509,
      "iner": 8510,
      "onal": 8511,
      "enump": 8512,
      "dequeue": 8513,
      "arse": 8514,
      "mempool": 8515,
      "isolation": 8516,
      "contribut": 8517,
      "mak": 8518,
      "atel": 8519,
      "tee": 8520,
      "procs": 8521,
      "upport": 8522,
      "libdv": 8523,
      "pools": 8524,
      "beam": 8525,
      "typeof": 8526,
      "dbname": 8527,
      "device3": 8528,
      "prefetch": 8529,
      "rcs": 8530,
      "smid": 8531,
      "glue": 8532,
      "heading": 8533,
      "105": 8534,
      "1632": 8535,
      "functional": 8536,
      "functionality": 8537,
      "fixed0": 8538,
      "fixed3": 8539,
      "fixed4": 8540,
      "fixed5": 8541,
      "fixed6": 8542,
      "fixed7": 8543,
      "fixed9": 8544,
      "fixed10": 8545,
      "fixed12": 8546,
      "fixed11": 8547,
      "fixed20": 8548,
      "fixed32": 8549,
      "fixed15": 8550,
      "fixed25": 8551,
      "fixed19": 8552,
      "fixed13": 8553,
      "fixed14": 8554,
      "fixed18": 8555,
      "fixed34": 8556,
      "fixed17": 8557,
      "fixed24": 8558,
      "fixed56": 8559,
      "fixed22": 8560,
      "fixed26": 8561,
      "fixed33": 8562,
      "fixed30": 8563,
      "fixed28": 8564,
      "fixed50": 8565,
      "fixed38": 8566,
      "fixed40": 8567,
      "fixed48": 8568,
      "fixed27": 8569,
      "fixed36": 8570,
      "fixed55": 8571,
      "fixed29": 8572,
      "fixed35": 8573,
      "fixed44": 8574,
      "fixed37": 8575,
      "fixed59": 8576,
      "fixed39": 8577,
      "fixed57": 8578,
      "fixed49": 8579,
      "fixed47": 8580,
      "fixed23": 8581,
      "fixed21": 8582,
      "fixed46": 8583,
      "fixed31": 8584,
      "fixed45": 8585,
      "fixed58": 8586,
      "fixed60": 8587,
      "fixed54": 8588,
      "fixed52": 8589,
      "fixed42": 8590,
      "fixed53": 8591,
      "fixed51": 8592,
      "fixed43": 8593,
      "fixed41": 8594,
      "fixed63": 8595,
      "fixed62": 8596,
      "fixed61": 8597,
      "classification": 8598,
      "staff": 8599,
      "clumps": 8600,
      "enterprise": 8601,
      "bufsize": 8602,
      "dfu": 8603,
      "globals": 8604,
      "h5g": 8605,
      "mismatched": 8606,
      "wow": 8607,
      "distinct": 8608,
      "extraction": 8609,
      "exceptions": 8610,
      "xmls": 8611,
      "analog": 8612,
      "banded": 8613,
      "dmx": 8614,
      "bglu": 8615,
      "adjusted": 8616,
      "invite": 8617,
      "osmtest": 8618,
      "pmem2": 8619,
      "adaptorfetchby": 8620,
      "nmea": 8621,
      "cancelling": 8622,
      "nfs4err": 8623,
      "getnameinfo": 8624,
      "avsfilter": 8625,
      "parenthesis": 8626,
      "concern": 8627,
      "velocity": 8628,
      "225": 8629,
      "237": 8630,
      "3lf": 8631,
      "8g": 8632,
      "aget": 8633,
      "bcache": 8634,
      "came": 8635,
      "craw": 8636,
      "ccd": 8637,
      "fallocate": 8638,
      "gdi": 8639,
      "kr": 8640,
      "kana": 8641,
      "ore": 8642,
      "ored": 8643,
      "pwr": 8644,
      "qv": 8645,
      "rhs": 8646,
      "sal": 8647,
      "wts": 8648,
      "yu": 8649,
      "reinit": 8650,
      "demod": 8651,
      "demand": 8652,
      "arph": 8653,
      "ed25519": 8654,
      "cel": 8655,
      "unblock": 8656,
      "mplayer": 8657,
      "ulated": 8658,
      "libipv6calc": 8659,
      "pod": 8660,
      "outbound": 8661,
      "stry": 8662,
      "eta": 8663,
      "adds": 8664,
      "mmsh": 8665,
      "datagram": 8666,
      "ipaddress": 8667,
      "icera": 8668,
      "intern": 8669,
      "located": 8670,
      "splix": 8671,
      "preced": 8672,
      "infos": 8673,
      "userdata": 8674,
      "subimage": 8675,
      "mdraid": 8676,
      "imity": 8677,
      "findfont": 8678,
      "runner": 8679,
      "cloud": 8680,
      "sdlx": 8681,
      "uids": 8682,
      "fltk": 8683,
      "internals": 8684,
      "hashing": 8685,
      "lobject": 8686,
      "buflen": 8687,
      "responses": 8688,
      "goes": 8689,
      "boxed": 8690,
      "graphy": 8691,
      "sigchld": 8692,
      "grevcom": 8693,
      "rdn": 8694,
      "surface4": 8695,
      "bars": 8696,
      "radi": 8697,
      "cookies": 8698,
      "compositor": 8699,
      "mtpz": 8700,
      "chooser": 8701,
      "quotas": 8702,
      "mqtt": 8703,
      "chafa": 8704,
      "colours": 8705,
      "w3c": 8706,
      "growing": 8707,
      "triple": 8708,
      "introdu": 8709,
      "proximity": 8710,
      "novatel": 8711,
      "asynchronously": 8712,
      "4096": 8713,
      "quarter": 8714,
      "michael": 8715,
      "strftime": 8716,
      "switched": 8717,
      "618": 8718,
      "8lx": 8719,
      "dac": 8720,
      "fstype": 8721,
      "ira": 8722,
      "jun": 8723,
      "ppc": 8724,
      "sour": 8725,
      "tn": 8726,
      "vq": 8727,
      "wsh": 8728,
      "xts": 8729,
      "remember": 8730,
      "oniker": 8731,
      "isation": 8732,
      "iserver": 8733,
      "fade": 8734,
      "fasimulationsmoother": 8735,
      "absent": 8736,
      "trr": 8737,
      "trunk": 8738,
      "verlay": 8739,
      "getline": 8740,
      "getlb": 8741,
      "ulti": 8742,
      "libevent": 8743,
      "libctab": 8744,
      "ripng": 8745,
      "uris": 8746,
      "courier": 8747,
      "scn": 8748,
      "bare": 8749,
      "tpmu": 8750,
      "varlink": 8751,
      "gstmpegts": 8752,
      "mind": 8753,
      "sends": 8754,
      "iobuf": 8755,
      "signifi": 8756,
      "121": 8757,
      "waiter": 8758,
      "165": 8759,
      "167": 8760,
      "runas": 8761,
      "2016": 8762,
      "clef": 8763,
      "unified": 8764,
      "mbps": 8765,
      "15g": 8766,
      "tracked": 8767,
      "cron": 8768,
      "removes": 8769,
      "organ": 8770,
      "134": 8771,
      "138": 8772,
      "hugetlb": 8773,
      "ensgv": 8774,
      "listeners": 8775,
      "inodelk": 8776,
      "parents": 8777,
      "ibend": 8778,
      "recognize": 8779,
      "06zu": 8780,
      "dxbc": 8781,
      "bigram": 8782,
      "indicate": 8783,
      "underlying": 8784,
      "yylex": 8785,
      "someone": 8786,
      "turning": 8787,
      "cellaneous": 8788,
      "captured": 8789,
      "continuity": 8790,
      "consistent": 8791,
      "sudoers": 8792,
      "setoption": 8793,
      "bookmarks": 8794,
      "hugeadm": 8795,
      "derivative": 8796,
      "triangles": 8797,
      "id3dxeffectcompiler": 8798,
      "weapon": 8799,
      "bibtex": 8800,
      "molecule": 8801,
      "jectoryfile": 8802,
      "libctabix": 8803,
      "332": 8804,
      "8p": 8805,
      "bau": 8806,
      "cart": 8807,
      "dail": 8808,
      "e9": 8809,
      "esi": 8810,
      "hil": 8811,
      "iroster": 8812,
      "jfs": 8813,
      "lper": 8814,
      "nag": 8815,
      "ngram": 8816,
      "nib": 8817,
      "oh": 8818,
      "qw": 8819,
      "qml": 8820,
      "rame": 8821,
      "snow": 8822,
      "inclusive": 8823,
      "revoke": 8824,
      "arget": 8825,
      "ckalmanfilter": 8826,
      "consec": 8827,
      "mpp": 8828,
      "mote": 8829,
      "movl": 8830,
      "libwinpr": 8831,
      "datal": 8832,
      "byid": 8833,
      "igmp": 8834,
      "chemi": 8835,
      "peripher": 8836,
      "argb": 8837,
      "rcfile": 8838,
      "oldest": 8839,
      "llm": 8840,
      "agg": 8841,
      "124": 8842,
      "importer": 8843,
      "parameteriv": 8844,
      "cyclone": 8845,
      "fontname": 8846,
      "pppp": 8847,
      "packing": 8848,
      "gost": 8849,
      "133": 8850,
      "networking": 8851,
      "341": 8852,
      "dvds": 8853,
      "presenter": 8854,
      "vents": 8855,
      "seqregion": 8856,
      "dlg": 8857,
      "completely": 8858,
      "h5p": 8859,
      "surface3": 8860,
      "uint128": 8861,
      "expressions": 8862,
      "visualization": 8863,
      "collector": 8864,
      "exporting": 8865,
      "transactions": 8866,
      "committed": 8867,
      "determined": 8868,
      "batt": 8869,
      "templates": 8870,
      "relaying": 8871,
      "revoked": 8872,
      "indication": 8873,
      "restrictions": 8874,
      "tmds": 8875,
      "deviation": 8876,
      "nanoseconds": 8877,
      "inherited": 8878,
      "ffffffffffffffff": 8879,
      "screens": 8880,
      "passthru": 8881,
      "arphrd": 8882,
      "libctabixproxies": 8883,
      "218": 8884,
      "5i": 8885,
      "cub": 8886,
      "gover": 8887,
      "hill": 8888,
      "jog": 8889,
      "kwallet": 8890,
      "ogl": 8891,
      "popen": 8892,
      "qobject": 8893,
      "wsa": 8894,
      "inversion": 8895,
      "erl": 8896,
      "erasing": 8897,
      "reap": 8898,
      "encaps": 8899,
      "oui": 8900,
      "fido": 8901,
      "cores": 8902,
      "fam": 8903,
      "pel": 8904,
      "mpath": 8905,
      "ldoc": 8906,
      "opd": 8907,
      "opal": 8908,
      "utive": 8909,
      "mooth": 8910,
      "andre": 8911,
      "bezi": 8912,
      "aug": 8913,
      "sysex": 8914,
      "dataobject": 8915,
      "tpml": 8916,
      "netfilter": 8917,
      "cplugin": 8918,
      "backwards": 8919,
      "manette": 8920,
      "ived": 8921,
      "10g": 8922,
      "redund": 8923,
      "istance": 8924,
      "regdb": 8925,
      "cacheconfig": 8926,
      "mbm": 8927,
      "stores": 8928,
      "tls1": 8929,
      "ftdi": 8930,
      "135": 8931,
      "136": 8932,
      "145": 8933,
      "tokenizer": 8934,
      "north": 8935,
      "rdt": 8936,
      "mimetype": 8937,
      "pixelformat": 8938,
      "controllers": 8939,
      "nickserv": 8940,
      "pdbedit": 8941,
      "unlinked": 8942,
      "magickgetimage": 8943,
      "spawned": 8944,
      "synchronize": 8945,
      "secondarycolor": 8946,
      "squash": 8947,
      "idirectmusicloader": 8948,
      "fecycle": 8949,
      "gstrtsp": 8950,
      "italic": 8951,
      "lumin": 8952,
      "coefficients": 8953,
      "semantic": 8954,
      "id3dxeffectcompilerimpl": 8955,
      "daily": 8956,
      "2m": 8957,
      "5scipy": 8958,
      "8bit": 8959,
      "a11": 8960,
      "bson": 8961,
      "dinput": 8962,
      "dumb": 8963,
      "fld": 8964,
      "hm": 8965,
      "hin": 8966,
      "hlp": 8967,
      "pwrap": 8968,
      "pxd": 8969,
      "serror": 8970,
      "wv": 8971,
      "infer": 8972,
      "recompile": 8973,
      "stil": 8974,
      "those": 8975,
      "loy": 8976,
      "isdb": 8977,
      "isnull": 8978,
      "ssy": 8979,
      "exemp": 8980,
      "fileid": 8981,
      "mpar": 8982,
      "nef": 8983,
      "trid": 8984,
      "setxattr": 8985,
      "getty": 8986,
      "pamp": 8987,
      "libtrace": 8988,
      "libtransmission": 8989,
      "ami": 8990,
      "ams": 8991,
      "urb": 8992,
      "outstanding": 8993,
      "dome": 8994,
      "strv": 8995,
      "ffect": 8996,
      "ets": 8997,
      "extre": 8998,
      "int8": 8999,
      "suites": 9000,
      "lsb": 9001,
      "spread": 9002,
      "spice": 9003,
      "presets": 9004,
      "supporting": 9005,
      "configur": 9006,
      "subtract": 9007,
      "gltexture": 9008,
      "offload": 9009,
      "129": 9010,
      "bitstring": 9011,
      "cloexec": 9012,
      "svcd": 9013,
      "afm": 9014,
      "localgroup": 9015,
      "ccc": 9016,
      "drift": 9017,
      "156": 9018,
      "ppdc": 9019,
      "hashindex": 9020,
      "139": 9021,
      "menus": 9022,
      "detector": 9023,
      "markers": 9024,
      "greis": 9025,
      "ddd": 9026,
      "aaa": 9027,
      "eader": 9028,
      "bbppp": 9029,
      "h5ac": 9030,
      "forked": 9031,
      "ixfr": 9032,
      "thresholds": 9033,
      "languages": 9034,
      "likeli": 9035,
      "processors": 9036,
      "vec2": 9037,
      "tuples": 9038,
      "getopt": 9039,
      "puk": 9040,
      "evaluation": 9041,
      "discovered": 9042,
      "osmconvert": 9043,
      "morph": 9044,
      "interpretation": 9045,
      "applicable": 9046,
      "mstask": 9047,
      "denominator": 9048,
      "excessive": 9049,
      "advertising": 9050,
      "xmltextreader": 9051,
      "stapling": 9052,
      "ibendport": 9053,
      "consecutive": 9054,
      "redundant": 9055,
      "239": 9056,
      "503": 9057,
      "ael": 9058,
      "bsize": 9059,
      "cup": 9060,
      "i4": 9061,
      "ilu": 9062,
      "jp2": 9063,
      "mscat": 9064,
      "oe": 9065,
      "pent": 9066,
      "r4": 9067,
      "rssi": 9068,
      "ulog": 9069,
      "vul": 9070,
      "vtx": 9071,
      "zo": 9072,
      "reci": 9073,
      "stem": 9074,
      "arily": 9075,
      "chs": 9076,
      "cow": 9077,
      "fabri": 9078,
      "uninstall": 9079,
      "unserialize": 9080,
      "expose": 9081,
      "abnormally": 9082,
      "abbre": 9083,
      "ofstream": 9084,
      "outlet": 9085,
      "scro": 9086,
      "geno": 9087,
      "complement": 9088,
      "device2": 9089,
      "obs": 9090,
      "meminfo": 9091,
      "dupe": 9092,
      "otf": 9093,
      "confir": 9094,
      "emboss": 9095,
      "oney": 9096,
      "ski": 9097,
      "substream": 9098,
      "gling": 9099,
      "02xh": 9100,
      "recla": 9101,
      "primer": 9102,
      "imation": 9103,
      "118": 9104,
      "marc": 9105,
      "sysctl": 9106,
      "noname": 9107,
      "nonzero": 9108,
      "selftest": 9109,
      "cmdlang": 9110,
      "cbcr": 9111,
      "143": 9112,
      "frei0": 9113,
      "metad": 9114,
      "serializing": 9115,
      "uuids": 9116,
      "placeholder": 9117,
      "community": 9118,
      "quotes": 9119,
      "allele": 9120,
      "longest": 9121,
      "qrtr": 9122,
      "distributions": 9123,
      "inquire": 9124,
      "issues": 9125,
      "forwards": 9126,
      "sharing": 9127,
      "maintain": 9128,
      "getpwnam": 9129,
      "likelihood": 9130,
      "frei0r": 9131,
      "0e": 9132,
      "5e": 9133,
      "cz": 9134,
      "m1": 9135,
      "march": 9136,
      "qlist": 9137,
      "qedi": 9138,
      "rh": 9139,
      "sbegin": 9140,
      "spot": 9141,
      "vnd": 9142,
      "inuse": 9143,
      "inform": 9144,
      "recon": 9145,
      "dealloc": 9146,
      "deca": 9147,
      "cep": 9148,
      "ception": 9149,
      "thres": 9150,
      "liqu": 9151,
      "lisp": 9152,
      "robot": 9153,
      "netp": 9154,
      "getclass": 9155,
      "lack": 9156,
      "lavc": 9157,
      "lacks": 9158,
      "prod": 9159,
      "dire": 9160,
      "fff": 9161,
      "etary": 9162,
      "extends": 9163,
      "puts": 9164,
      "ints": 9165,
      "soc": 9166,
      "sclient": 9167,
      "device1": 9168,
      "logies": 9169,
      "prefork": 9170,
      "quee": 9171,
      "artment": 9172,
      "speex": 9173,
      "evr": 9174,
      "subgroup": 9175,
      "glcopy": 9176,
      "glsecondarycolor": 9177,
      "avis": 9178,
      "miscellaneous": 9179,
      "ivl": 9180,
      "flap": 9181,
      "tableoid": 9182,
      "hostlist": 9183,
      "clamav": 9184,
      "clang": 9185,
      "sdt": 9186,
      "155": 9187,
      "159": 9188,
      "operate": 9189,
      "timeouts": 9190,
      "lookupby": 9191,
      "pfm": 9192,
      "geoip": 9193,
      "descriptions": 9194,
      "progs": 9195,
      "tabs": 9196,
      "44780": 9197,
      "slon": 9198,
      "vpx": 9199,
      "hd44780": 9200,
      "knownhost": 9201,
      "hybrid": 9202,
      "probes": 9203,
      "arkode": 9204,
      "satis": 9205,
      "branches": 9206,
      "oooooooo": 9207,
      "initiated": 9208,
      "wbint": 9209,
      "incremental": 9210,
      "explicitly": 9211,
      "aiohttp": 9212,
      "odbcinst": 9213,
      "granted": 9214,
      "decrement": 9215,
      "inverted": 9216,
      "abytes": 9217,
      "huffman": 9218,
      "provisioning": 9219,
      "acknowledge": 9220,
      "gettimeofday": 9221,
      "satellite": 9222,
      "escaped": 9223,
      "zvbid": 9224,
      "across": 9225,
      "peripheral": 9226,
      "364": 9227,
      "432": 9228,
      "bx": 9229,
      "bidi": 9230,
      "c2s": 9231,
      "egid": 9232,
      "fly": 9233,
      "gtype": 9234,
      "ggi": 9235,
      "hcontext": 9236,
      "ile": 9237,
      "kex": 9238,
      "lstat": 9239,
      "nh": 9240,
      "nto": 9241,
      "nsm": 9242,
      "ntop": 9243,
      "pbr": 9244,
      "rkey": 9245,
      "xtd": 9246,
      "zmalloc": 9247,
      "gemm": 9248,
      "thunk": 9249,
      "ssa": 9250,
      "undefine": 9251,
      "congest": 9252,
      "notation": 9253,
      "getc": 9254,
      "getstring": 9255,
      "umad": 9256,
      "ves": 9257,
      "uplink": 9258,
      "libxslt": 9259,
      "portmap": 9260,
      "rescan": 9261,
      "endpoints": 9262,
      "ext2": 9263,
      "grand": 9264,
      "sccr": 9265,
      "interaction": 9266,
      "intersect": 9267,
      "orders": 9268,
      "suppressed": 9269,
      "said": 9270,
      "netcam": 9271,
      "rcvd": 9272,
      "cpuid": 9273,
      "glnormal": 9274,
      "gindex": 9275,
      "triang": 9276,
      "directtcp": 9277,
      "worddb": 9278,
      "claims": 9279,
      "finddcs": 9280,
      "cdw": 9281,
      "codon": 9282,
      "cyber": 9283,
      "dri2": 9284,
      "propertyset": 9285,
      "144": 9286,
      "sigmask": 9287,
      "sigpipe": 9288,
      "ddci": 9289,
      "muxd": 9290,
      "relp": 9291,
      "03o": 9292,
      "999": 9293,
      "ipv6addr": 9294,
      "sids": 9295,
      "abilities": 9296,
      "301": 9297,
      "vtsi": 9298,
      "transports": 9299,
      "forking": 9300,
      "splitmux": 9301,
      "alpn": 9302,
      "learning": 9303,
      "inetd": 9304,
      "expanding": 9305,
      "optical": 9306,
      "unlinking": 9307,
      "acceleration": 9308,
      "computation": 9309,
      "dependencies": 9310,
      "smoo": 9311,
      "quoting": 9312,
      "assembler": 9313,
      "facctd": 9314,
      "nssa": 9315,
      "d2cs": 9316,
      "delegated": 9317,
      "proceeding": 9318,
      "deref": 9319,
      "claimed": 9320,
      "bloom": 9321,
      "weapons": 9322,
      "dimagev": 9323,
      "lrucache": 9324,
      "cafdoc": 9325,
      "gregorio": 9326,
      "morphology": 9327,
      "smidump": 9328,
      "abbrevi": 9329,
      "302": 9330,
      "303": 9331,
      "cac": 9332,
      "eig": 9333,
      "flinalg": 9334,
      "ienum": 9335,
      "jar": 9336,
      "knot": 9337,
      "lte": 9338,
      "lpm": 9339,
      "mop": 9340,
      "oil": 9341,
      "s8": 9342,
      "scopy": 9343,
      "saddr": 9344,
      "stal": 9345,
      "enclosure": 9346,
      "seam": 9347,
      "ancing": 9348,
      "ara": 9349,
      "arpa": 9350,
      "unbalanced": 9351,
      "setsize": 9352,
      "usock": 9353,
      "getstatus": 9354,
      "viol": 9355,
      "libear": 9356,
      "readfile": 9357,
      "poc": 9358,
      "poke": 9359,
      "kept": 9360,
      "docs": 9361,
      "linit": 9362,
      "validated": 9363,
      "quis": 9364,
      "matic": 9365,
      "0x7": 9366,
[...]
